{
  "version": "1.0",
  "truncation": {
    "direction": "Right",
    "max_length": 512,
    "strategy": "LongestFirst",
    "stride": 0
  },
  "padding": {
    "strategy": {
      "Fixed": 512
    },
    "direction": "Right",
    "pad_to_multiple_of": null,
    "pad_id": 1,
    "pad_type_id": 0,
    "pad_token": "<pad>"
  },
  "added_tokens": [
    {
      "id": 0,
      "content": "<s>",
      "single_word": false,
      "lstrip": false,
      "rstrip": false,
      "normalized": false,
      "special": true
    },
    {
      "id": 1,
      "content": "<pad>",
      "single_word": false,
      "lstrip": false,
      "rstrip": false,
      "normalized": false,
      "special": true
    },
    {
      "id": 2,
      "content": "</s>",
      "single_word": false,
      "lstrip": false,
      "rstrip": false,
      "normalized": false,
      "special": true
    },
    {
      "id": 3,
      "content": "<unk>",
      "single_word": false,
      "lstrip": false,
      "rstrip": false,
      "normalized": false,
      "special": true
    },
    {
      "id": 4,
      "content": "<mask>",
      "single_word": false,
      "lstrip": false,
      "rstrip": false,
      "normalized": false,
      "special": true
    }
  ],
  "normalizer": null,
  "pre_tokenizer": {
    "type": "ByteLevel",
    "add_prefix_space": false,
    "trim_offsets": true,
    "use_regex": true
  },
  "post_processor": {
    "type": "ByteLevel",
    "add_prefix_space": true,
    "trim_offsets": false,
    "use_regex": true
  },
  "decoder": {
    "type": "ByteLevel",
    "add_prefix_space": true,
    "trim_offsets": true,
    "use_regex": true
  },
  "model": {
    "type": "BPE",
    "dropout": null,
    "unk_token": null,
    "continuing_subword_prefix": null,
    "end_of_word_suffix": null,
    "fuse_unk": false,
    "byte_fallback": false,
    "ignore_merges": false,
    "vocab": {
      "<s>": 0,
      "<pad>": 1,
      "</s>": 2,
      "<unk>": 3,
      "<mask>": 4,
      "!": 5,
      "\"": 6,
      "#": 7,
      "$": 8,
      "%": 9,
      "&": 10,
      "'": 11,
      "(": 12,
      ")": 13,
      "*": 14,
      "+": 15,
      ",": 16,
      "-": 17,
      ".": 18,
      "/": 19,
      "0": 20,
      "1": 21,
      "2": 22,
      "3": 23,
      "4": 24,
      "5": 25,
      "6": 26,
      "7": 27,
      "8": 28,
      "9": 29,
      ":": 30,
      ";": 31,
      "<": 32,
      "=": 33,
      ">": 34,
      "?": 35,
      "@": 36,
      "A": 37,
      "B": 38,
      "C": 39,
      "D": 40,
      "E": 41,
      "F": 42,
      "G": 43,
      "H": 44,
      "I": 45,
      "J": 46,
      "K": 47,
      "L": 48,
      "M": 49,
      "N": 50,
      "O": 51,
      "P": 52,
      "Q": 53,
      "R": 54,
      "S": 55,
      "T": 56,
      "U": 57,
      "V": 58,
      "W": 59,
      "X": 60,
      "Y": 61,
      "Z": 62,
      "[": 63,
      "\\": 64,
      "]": 65,
      "^": 66,
      "_": 67,
      "`": 68,
      "a": 69,
      "b": 70,
      "c": 71,
      "d": 72,
      "e": 73,
      "f": 74,
      "g": 75,
      "h": 76,
      "i": 77,
      "j": 78,
      "k": 79,
      "l": 80,
      "m": 81,
      "n": 82,
      "o": 83,
      "p": 84,
      "q": 85,
      "r": 86,
      "s": 87,
      "t": 88,
      "u": 89,
      "v": 90,
      "w": 91,
      "x": 92,
      "y": 93,
      "z": 94,
      "{": 95,
      "|": 96,
      "}": 97,
      "~": 98,
      "¡": 99,
      "¢": 100,
      "£": 101,
      "¤": 102,
      "¥": 103,
      "¦": 104,
      "§": 105,
      "¨": 106,
      "©": 107,
      "ª": 108,
      "«": 109,
      "¬": 110,
      "®": 111,
      "¯": 112,
      "°": 113,
      "±": 114,
      "²": 115,
      "³": 116,
      "´": 117,
      "µ": 118,
      "¶": 119,
      "·": 120,
      "¸": 121,
      "¹": 122,
      "º": 123,
      "»": 124,
      "¼": 125,
      "½": 126,
      "¾": 127,
      "¿": 128,
      "À": 129,
      "Á": 130,
      "Â": 131,
      "Ã": 132,
      "Ä": 133,
      "Å": 134,
      "Æ": 135,
      "Ç": 136,
      "È": 137,
      "É": 138,
      "Ê": 139,
      "Ë": 140,
      "Ì": 141,
      "Í": 142,
      "Î": 143,
      "Ï": 144,
      "Ð": 145,
      "Ñ": 146,
      "Ò": 147,
      "Ó": 148,
      "Ô": 149,
      "Õ": 150,
      "Ö": 151,
      "×": 152,
      "Ø": 153,
      "Ù": 154,
      "Ú": 155,
      "Û": 156,
      "Ü": 157,
      "Ý": 158,
      "Þ": 159,
      "ß": 160,
      "à": 161,
      "á": 162,
      "â": 163,
      "ã": 164,
      "ä": 165,
      "å": 166,
      "æ": 167,
      "ç": 168,
      "è": 169,
      "é": 170,
      "ê": 171,
      "ë": 172,
      "ì": 173,
      "í": 174,
      "î": 175,
      "ï": 176,
      "ð": 177,
      "ñ": 178,
      "ò": 179,
      "ó": 180,
      "ô": 181,
      "õ": 182,
      "ö": 183,
      "÷": 184,
      "ø": 185,
      "ù": 186,
      "ú": 187,
      "û": 188,
      "ü": 189,
      "ý": 190,
      "þ": 191,
      "ÿ": 192,
      "Ā": 193,
      "ā": 194,
      "Ă": 195,
      "ă": 196,
      "Ą": 197,
      "ą": 198,
      "Ć": 199,
      "ć": 200,
      "Ĉ": 201,
      "ĉ": 202,
      "Ċ": 203,
      "ċ": 204,
      "Č": 205,
      "č": 206,
      "Ď": 207,
      "ď": 208,
      "Đ": 209,
      "đ": 210,
      "Ē": 211,
      "ē": 212,
      "Ĕ": 213,
      "ĕ": 214,
      "Ė": 215,
      "ė": 216,
      "Ę": 217,
      "ę": 218,
      "Ě": 219,
      "ě": 220,
      "Ĝ": 221,
      "ĝ": 222,
      "Ğ": 223,
      "ğ": 224,
      "Ġ": 225,
      "ġ": 226,
      "Ģ": 227,
      "ģ": 228,
      "Ĥ": 229,
      "ĥ": 230,
      "Ħ": 231,
      "ħ": 232,
      "Ĩ": 233,
      "ĩ": 234,
      "Ī": 235,
      "ī": 236,
      "Ĭ": 237,
      "ĭ": 238,
      "Į": 239,
      "į": 240,
      "İ": 241,
      "ı": 242,
      "Ĳ": 243,
      "ĳ": 244,
      "Ĵ": 245,
      "ĵ": 246,
      "Ķ": 247,
      "ķ": 248,
      "ĸ": 249,
      "Ĺ": 250,
      "ĺ": 251,
      "Ļ": 252,
      "ļ": 253,
      "Ľ": 254,
      "ľ": 255,
      "Ŀ": 256,
      "ŀ": 257,
      "Ł": 258,
      "ł": 259,
      "Ń": 260,
      "Ġt": 261,
      "Ġa": 262,
      "in": 263,
      "he": 264,
      "re": 265,
      "on": 266,
      "at": 267,
      "Ġthe": 268,
      "Ġo": 269,
      "Ġs": 270,
      "er": 271,
      "en": 272,
      "Ġc": 273,
      "Ġp": 274,
      "ed": 275,
      "al": 276,
      "Ġof": 277,
      "Ġw": 278,
      "it": 279,
      "or": 280,
      "Ġin": 281,
      "es": 282,
      "Ġan": 283,
      "is": 284,
      "Ġf": 285,
      "Ġm": 286,
      "ion": 287,
      "ic": 288,
      "an": 289,
      "Ġb": 290,
      "Ġd": 291,
      "ro": 292,
      "ing": 293,
      "ar": 294,
      "Ġand": 295,
      "as": 296,
      "ct": 297,
      "le": 298,
      "Ġto": 299,
      "ent": 300,
      "ou": 301,
      "Ġre": 302,
      "Ġh": 303,
      "Ġe": 304,
      "ve": 305,
      "Ġth": 306,
      "Ġl": 307,
      "Ġn": 308,
      "om": 309,
      "ĠT": 310,
      "ly": 311,
      "ation": 312,
      "et": 313,
      "id": 314,
      "st": 315,
      "ll": 316,
      "Ġg": 317,
      "im": 318,
      "ra": 319,
      "ul": 320,
      "ĠI": 321,
      "ce": 322,
      "ut": 323,
      "ol": 324,
      "Ġis": 325,
      "ig": 326,
      "Ġfor": 327,
      "ot": 328,
      "us": 329,
      "ith": 330,
      "ur": 331,
      "os": 332,
      "Ġcon": 333,
      "ĠA": 334,
      "Ġwith": 335,
      "ĠThe": 336,
      "Ġst": 337,
      "Ġbe": 338,
      "ow": 339,
      "ch": 340,
      "Ġ,": 341,
      "Ġ@": 342,
      "Ġpro": 343,
      "Ġon": 344,
      "un": 345,
      "Ġ(": 346,
      "il": 347,
      "ect": 348,
      "ere": 349,
      "od": 350,
      "ter": 351,
      "am": 352,
      "em": 353,
      "if": 354,
      "Ġv": 355,
      "ir": 356,
      "Ġthat": 357,
      "res": 358,
      "um": 359,
      "ive": 360,
      "ĠS": 361,
      "Ġas": 362,
      "ay": 363,
      "Ġde": 364,
      "ĠC": 365,
      "ate": 366,
      "ver": 367,
      "Ġcom": 368,
      "ad": 369,
      "Ġ1": 370,
      "Ġwas": 371,
      "Ġby": 372,
      "Ġsu": 373,
      "Ġy": 374,
      "Ġex": 375,
      "ab": 376,
      "ag": 377,
      "op": 378,
      "Ġwh": 379,
      "se": 380,
      "her": 381,
      "rom": 382,
      "oc": 383,
      "qu": 384,
      "ated": 385,
      "ity": 386,
      "Ġse": 387,
      "ant": 388,
      "iv": 389,
      "ment": 390,
      "ist": 391,
      "ical": 392,
      "Ġor": 393,
      "Ġare": 394,
      "ac": 395,
      "pp": 396,
      "Ġr": 397,
      "ib": 398,
      "ure": 399,
      "est": 400,
      "Ġhe": 401,
      "Ġat": 402,
      "ain": 403,
      "ial": 404,
      "el": 405,
      "Ġch": 406,
      "ine": 407,
      "ĠM": 408,
      "ud": 409,
      "og": 410,
      "ess": 411,
      "igh": 412,
      "ort": 413,
      "Ġwere": 414,
      "Ġfrom": 415,
      "per": 416,
      "Ġres": 417,
      "ĠP": 418,
      "Ġcomp": 419,
      "Ġit": 420,
      "Ġyou": 421,
      "ell": 422,
      "ĠW": 423,
      "pt": 424,
      "nt": 425,
      "act": 426,
      "Ġal": 427,
      "ies": 428,
      "Ġme": 429,
      "th": 430,
      "ph": 431,
      "du": 432,
      "ĠB": 433,
      "ĠH": 434,
      "Ġcont": 435,
      "ers": 436,
      "ase": 437,
      "ĠD": 438,
      "end": 439,
      "ff": 440,
      "ran": 441,
      "ich": 442,
      "Ġha": 443,
      "ents": 444,
      "Ġsh": 445,
      "Ġle": 446,
      "Ġne": 447,
      "ore": 448,
      "iz": 449,
      "Ġsp": 450,
      "ult": 451,
      "up": 452,
      "Ġus": 453,
      "Ġun": 454,
      "ction": 455,
      "nd": 456,
      "Ġpat": 457,
      "Ġim": 458,
      "Ġwhich": 459,
      "Ġdis": 460,
      "ill": 461,
      "Ġinc": 462,
      "ke": 463,
      "ous": 464,
      "Ġad": 465,
      "Ġ'": 466,
      "ast": 467,
      "pl": 468,
      "Ġint": 469,
      "Ġ2": 470,
      "ight": 471,
      "and": 472,
      "ĠN": 473,
      "Ġnot": 474,
      "orm": 475,
      "art": 476,
      "ĠR": 477,
      "ĠF": 478,
      "ens": 479,
      "ide": 480,
      "Ġpl": 481,
      "ign": 482,
      "ĠE": 483,
      "ition": 484,
      "ge": 485,
      "Ġper": 486,
      "ld": 487,
      "ip": 488,
      "ations": 489,
      "Ġac": 490,
      "red": 491,
      "ĠL": 492,
      "Ġk": 493,
      "Ġsy": 494,
      "ress": 495,
      "ĠO": 496,
      "ĠIn": 497,
      "Ġthis": 498,
      "âĢ": 499,
      "Ġab": 500,
      "vel": 501,
      "ard": 502,
      "ary": 503,
      "all": 504,
      "Ġwe": 505,
      "Ġ\"": 506,
      "ĠG": 507,
      "ri": 508,
      "ru": 509,
      "Ġdi": 510,
      "Ġhave": 511,
      "Ġen": 512,
      "ost": 513,
      "Ġwhe": 514,
      "Ġpati": 515,
      "able": 516,
      "age": 517,
      "Ġapp": 518,
      "ence": 519,
      "te": 520,
      "ec": 521,
      "Ġcl": 522,
      "ther": 523,
      "ific": 524,
      "gh": 525,
      "Ġpre": 526,
      "yl": 527,
      "lect": 528,
      "Ġcell": 529,
      "rans": 530,
      "ia": 531,
      "ap": 532,
      "Ġcan": 533,
      "ĠTh": 534,
      "ind": 535,
      "ub": 536,
      "ance": 537,
      "ong": 538,
      "ular": 539,
      "one": 540,
      "ffect": 541,
      "ions": 542,
      "ose": 543,
      "Ġbet": 544,
      "our": 545,
      "Ġro": 546,
      "Ġgro": 547,
      "Ġmet": 548,
      "Ġall": 549,
      "ys": 550,
      "ach": 551,
      "Ġ3": 552,
      "Ġpatients": 553,
      "ced": 554,
      "Ġar": 555,
      "der": 556,
      "iff": 557,
      "Ġsub": 558,
      "ater": 559,
      "ould": 560,
      "Ġstud": 561,
      "Ġtrans": 562,
      "Ġout": 563,
      "Ġhas": 564,
      "ome": 565,
      "ors": 566,
      "Ġone": 567,
      "ace": 568,
      "we": 569,
      "out": 570,
      "ie": 571,
      "Ġsign": 572,
      "Ġinf": 573,
      "ear": 574,
      "ond": 575,
      "min": 576,
      "Ġthan": 577,
      "ative": 578,
      "00": 579,
      "Ġfl": 580,
      "ĠĠ": 581,
      "ust": 582,
      "ating": 583,
      "Ġdo": 584,
      "Ġinter": 585,
      "Ġdiff": 586,
      "Ġact": 587,
      "ass": 588,
      "wo": 589,
      "ry": 590,
      "cess": 591,
      "Ġob": 592,
      "olog": 593,
      "Ġass": 594,
      "ice": 595,
      "Ġra": 596,
      "Ġj": 597,
      "Ġsur": 598,
      "Ġph": 599,
      "ak": 600,
      "ree": 601,
      "stem": 602,
      "ric": 603,
      "ber": 604,
      "ound": 605,
      "Ġresp": 606,
      "uc": 607,
      "Ġbut": 608,
      "Ġbl": 609,
      "Ġdet": 610,
      "Ġno": 611,
      "Ġpres": 612,
      "ied": 613,
      "Ġrel": 614,
      "ally": 615,
      "ep": 616,
      "ween": 617,
      "Ġco": 618,
      "ood": 619,
      "Ġform": 620,
      "yp": 621,
      "Ġeffect": 622,
      "Ġag": 623,
      "Ġimp": 624,
      "Ġbeen": 625,
      "Ġmy": 626,
      "ue": 627,
      "ĠY": 628,
      "Ġthere": 629,
      "Ġgen": 630,
      "Ġrec": 631,
      "ved": 632,
      "Ġpart": 633,
      "ory": 634,
      "Ġbetween": 635,
      "ates": 636,
      "cl": 637,
      "ime": 638,
      "Ġsystem": 639,
      "are": 640,
      "Ġqu": 641,
      "Ġpo": 642,
      "reat": 643,
      ").": 644,
      "Ġpos": 645,
      "Ġman": 646,
      "ack": 647,
      "Ġind": 648,
      "Ġtwo": 649,
      "Ġev": 650,
      "fter": 651,
      "reas": 652,
      "Ġ-": 653,
      "Ġresult": 654,
      "ject": 655,
      "Ġmod": 656,
      "Ġant": 657,
      "ang": 658,
      "Ġhad": 659,
      "Ġdes": 660,
      "Ġam": 661,
      "oth": 662,
      "Ġso": 663,
      "cy": 664,
      "Ġcontro": 665,
      "Ġ?": 666,
      "ĠĊ": 667,
      "Ġ4": 668,
      "Ġdiffere": 669,
      "Ġother": 670,
      "Ġlo": 671,
      "Ġrep": 672,
      "Ġli": 673,
      "Ġsc": 674,
      "ont": 675,
      "Ġ5": 676,
      "ugh": 677,
      "Ġmore": 678,
      "Ġ19": 679,
      "Ġup": 680,
      "ĠU": 681,
      "av": 682,
      "rib": 683,
      "ari": 684,
      "form": 685,
      "ces": 686,
      "âĢĲ": 687,
      "Ġtheir": 688,
      "Ġwor": 689,
      "Ġ<": 690,
      "aus": 691,
      "ok": 692,
      "uring": 693,
      "Ġinto": 694,
      "Ġcells": 695,
      "ĠThis": 696,
      "Ġkn": 697,
      "Ġinv": 698,
      "Ġprov": 699,
      "own": 700,
      "Ġte": 701,
      "ĠJ": 702,
      "Ġsec": 703,
      "so": 704,
      "Ġreg": 705,
      "ount": 706,
      "ram": 707,
      "Ġthese": 708,
      "Ġ0": 709,
      "Ġmay": 710,
      "ans": 711,
      "ite": 712,
      "Ġser": 713,
      "Ġexp": 714,
      "ĠIt": 715,
      "Ġend": 716,
      "Ġafter": 717,
      "ons": 718,
      "Ġcor": 719,
      "Ġmo": 720,
      "Ġgroup": 721,
      "ile": 722,
      "Ġmem": 723,
      "Ġmeth": 724,
      "Ġcar": 725,
      "Ġits": 726,
      "tain": 727,
      "ility": 728,
      "Ġtime": 729,
      "ren": 730,
      "irst": 731,
      "ving": 732,
      "Ġincl": 733,
      "ros": 734,
      "int": 735,
      "Ġsa": 736,
      "Ġwhen": 737,
      "Ġprodu": 738,
      "ized": 739,
      "ox": 740,
      "ym": 741,
      "Ġcons": 742,
      "iss": 743,
      "cept": 744,
      "cent": 745,
      "Ġma": 746,
      "ivity": 747,
      "Ġhigh": 748,
      "mun": 749,
      "ium": 750,
      "Ġext": 751,
      "Ġfe": 752,
      "ĠWe": 753,
      "Ġsupp": 754,
      "Ġover": 755,
      "old": 756,
      "),": 757,
      "ĠV": 758,
      "Ġhy": 759,
      "Ġlow": 760,
      "Ġalso": 761,
      "ures": 762,
      "Ġinclud": 763,
      "und": 764,
      "rough": 765,
      "Ġfirst": 766,
      "hes": 767,
      "Ġthey": 768,
      "ays": 769,
      "Ġem": 770,
      "dition": 771,
      "Ġelect": 772,
      "velop": 773,
      "Ġtra": 774,
      "Ġabout": 775,
      "Ġcontrol": 776,
      "Ġanal": 777,
      "..": 778,
      "ord": 779,
      "yt": 780,
      "als": 781,
      "ically": 782,
      "Ġval": 783,
      "Ġrat": 784,
      "ame": 785,
      "hen": 786,
      "Ġmethod": 787,
      "ĠK": 788,
      "Ġunder": 789,
      "lic": 790,
      "Ġspec": 791,
      "ruct": 792,
      "osed": 793,
      "hed": 794,
      "Ġ:": 795,
      "ulation": 796,
      "ron": 797,
      "Ġlevel": 798,
      "ments": 799,
      "ix": 800,
      "ob": 801,
      "Ġsignific": 802,
      "Ġwho": 803,
      "ism": 804,
      "Ġused": 805,
      "ection": 806,
      "agn": 807,
      "Ġwill": 808,
      "Ġmon": 809,
      "tein": 810,
      "Ġuse": 811,
      "ks": 812,
      "ĠAn": 813,
      "ution": 814,
      "Ġ6": 815,
      "Ġshow": 816,
      "ings": 817,
      "Ġsim": 818,
      "ases": 819,
      "unction": 820,
      "ild": 821,
      "Ġgo": 822,
      "Ġdevelop": 823,
      "Ġpresent": 824,
      "Ġhis": 825,
      "Ġdec": 826,
      "Ġsuch": 827,
      "Ġdist": 828,
      "ody": 829,
      "ata": 830,
      "Ġboth": 831,
      "ft": 832,
      "ermin": 833,
      "oll": 834,
      "Ġthrough": 835,
      "ient": 836,
      "Ġresults": 837,
      "ser": 838,
      "Ġsignificant": 839,
      "ual": 840,
      "ration": 841,
      "Ġpr": 842,
      "Ġmeas": 843,
      "ne": 844,
      "Ġduring": 845,
      "Ġstudy": 846,
      "ible": 847,
      "Ġsome": 848,
      "Ġdifferent": 849,
      "ization": 850,
      "Ġyear": 851,
      "Ġonly": 852,
      "Ġshe": 853,
      "oci": 854,
      "amin": 855,
      "tern": 856,
      "rop": 857,
      "Ġgener": 858,
      "itt": 859,
      "acter": 860,
      "Ġacc": 861,
      "Ġeach": 862,
      "ered": 863,
      "gg": 864,
      "Ġyour": 865,
      "Ġrem": 866,
      "ĠAnd": 867,
      "Ġincreas": 868,
      "NA": 869,
      "Ġvari": 870,
      "ery": 871,
      "ract": 872,
      "ected": 873,
      "ock": 874,
      "ough": 875,
      "Ġtest": 876,
      "ature": 877,
      "ble": 878,
      "reatment": 879,
      "str": 880,
      "Ġprocess": 881,
      "gen": 882,
      "duced": 883,
      "hy": 884,
      "'s": 885,
      "ics": 886,
      "Ġsecond": 887,
      "ire": 888,
      "Ġprovid": 889,
      "Ġknow": 890,
      "ared": 891,
      "Ġcol": 892,
      "Ġpar": 893,
      "ĠSt": 894,
      "Ġdisc": 895,
      "Ġsurf": 896,
      "ail": 897,
      "Ġpe": 898,
      "ink": 899,
      "ause": 900,
      "Ġher": 901,
      "ural": 902,
      "ities": 903,
      "cer": 904,
      "ise": 905,
      "Ġbas": 906,
      "Ġdata": 907,
      "Ġmed": 908,
      "Ġpa": 909,
      "hem": 910,
      "Ġsm": 911,
      "irc": 912,
      "di": 913,
      "ĠYou": 914,
      "raph": 915,
      "Ġsaid": 916,
      "Ġdef": 917,
      "'t": 918,
      "Ġgl": 919,
      "Ġfound": 920,
      "Ġlike": 921,
      "ange": 922,
      "Ġatt": 923,
      "ident": 924,
      "Ġmic": 925,
      "Ġsol": 926,
      "Ġchar": 927,
      "Ġusing": 928,
      "hib": 929,
      "les": 930,
      "Ġnon": 931,
      "let": 932,
      "ollow": 933,
      "ially": 934,
      "ms": 935,
      "fer": 936,
      "Ġprotein": 937,
      "atic": 938,
      "Ġnew": 939,
      "ormal": 940,
      "ma": 941,
      "ues": 942,
      "ral": 943,
      "Ġ10": 944,
      "Ġhaving": 945,
      "Ġfact": 946,
      "ency": 947,
      "eth": 948,
      "Ġdep": 949,
      "inal": 950,
      "rain": 951,
      "cc": 952,
      "its": 953,
      "ĠCh": 954,
      "ade": 955,
      "mer": 956,
      "Ġtreatment": 957,
      "Ġnum": 958,
      "itive": 959,
      "Ġfunction": 960,
      "Ġoper": 961,
      "Ġwell": 962,
      "ning": 963,
      "Ġsl": 964,
      "ake": 965,
      "Ġ7": 966,
      "osis": 967,
      "rap": 968,
      "Ġpoly": 969,
      "Ġhum": 970,
      "ious": 971,
      "ĠHe": 972,
      "ogen": 973,
      "Ġaut": 974,
      "Ġpress": 975,
      "mon": 976,
      "Ġmin": 977,
      "ention": 978,
      "ysis": 979,
      "par": 980,
      "Ġwhat": 981,
      "rit": 982,
      "chn": 983,
      "Ġwork": 984,
      "Ġexper": 985,
      "Ġloc": 986,
      "Ġcontain": 987,
      "ark": 988,
      "Ġmeasure": 989,
      "Ġtyp": 990,
      "Ġprog": 991,
      "Ġwhere": 992,
      "Ġactivity": 993,
      "tic": 994,
      "eld": 995,
      "Ġdire": 996,
      "amp": 997,
      "ggest": 998,
      "Ġdid": 999,
      "Ġany": 1000,
      "Ġprev": 1001,
      "Ġsuggest": 1002,
      "Ġcirc": 1003,
      "ane": 1004,
      "Ġport": 1005,
      "ris": 1006,
      "ited": 1007,
      "Ġacid": 1008,
      "Ġcould": 1009,
      "ful": 1010,
      "Ġmodel": 1011,
      "Ġindic": 1012,
      "Ġlong": 1013,
      "Ġbec": 1014,
      "dro": 1015,
      "ick": 1016,
      "Ġconcent": 1017,
      "ever": 1018,
      "Ġstruct": 1019,
      "Ġfollow": 1020,
      "Ġsurface": 1021,
      "oid": 1022,
      "Ġ8": 1023,
      "Ġobser": 1024,
      "Ġwould": 1025,
      "ish": 1026,
      "erg": 1027,
      "very": 1028,
      "ath": 1029,
      "de": 1030,
      "ator": 1031,
      "Ġele": 1032,
      "Ġdev": 1033,
      "Ġins": 1034,
      "Ġthose": 1035,
      "ective": 1036,
      "put": 1037,
      "ian": 1038,
      "fore": 1039,
      "Ġpartic": 1040,
      "Ġthree": 1041,
      "Ġposition": 1042,
      "vers": 1043,
      "ov": 1044,
      "Ġcomple": 1045,
      "Ġdise": 1046,
      "iqu": 1047,
      "ological": 1048,
      "Ġsupport": 1049,
      "rease": 1050,
      "ified": 1051,
      "Ġest": 1052,
      "Ġthem": 1053,
      "ute": 1054,
      "ex": 1055,
      "Ġcur": 1056,
      "ret": 1057,
      "Ġif": 1058,
      "Ġtechn": 1059,
      "Ġmater": 1060,
      "ograph": 1061,
      "ield": 1062,
      "ression": 1063,
      "Ġmost": 1064,
      "Ġperform": 1065,
      "ward": 1066,
      "etic": 1067,
      "ĠThese": 1068,
      "Ġcent": 1069,
      "Ġyears": 1070,
      "Ġdem": 1071,
      "rel": 1072,
      "Ġocc": 1073,
      "Ġref": 1074,
      "Ġless": 1075,
      "ants": 1076,
      "rent": 1077,
      "urn": 1078,
      "Ġhuman": 1079,
      "Ġdesc": 1080,
      "ational": 1081,
      "ffic": 1082,
      "Ġblood": 1083,
      "iew": 1084,
      "li": 1085,
      "ital": 1086,
      "Ġagain": 1087,
      "Ġflu": 1088,
      "Ġchild": 1089,
      "Ġconst": 1090,
      "erm": 1091,
      "duct": 1092,
      "Ġ.": 1093,
      "Ġbeing": 1094,
      "ior": 1095,
      "Ġop": 1096,
      "Ġwithin": 1097,
      "pert": 1098,
      "ement": 1099,
      "Ġtem": 1100,
      "Ġreport": 1101,
      "ck": 1102,
      "Ġback": 1103,
      "Ġneed": 1104,
      "iod": 1105,
      "Ġ9": 1106,
      "Ġimmun": 1107,
      "ĠWh": 1108,
      "Ġhow": 1109,
      "Ġinhib": 1110,
      "xim": 1111,
      "Ġmaterial": 1112,
      "Ġrate": 1113,
      "chan": 1114,
      "Ġcal": 1115,
      "Ġchang": 1116,
      "Ġassoci": 1117,
      "nce": 1118,
      "ines": 1119,
      "ĠIm": 1120,
      "ages": 1121,
      "Ġconn": 1122,
      "Ġjust": 1123,
      "wn": 1124,
      "ting": 1125,
      "Ġmot": 1126,
      "Ġcases": 1127,
      "Ġlar": 1128,
      "iven": 1129,
      "requ": 1130,
      "Ġel": 1131,
      "tained": 1132,
      "gan": 1133,
      "sub": 1134,
      "sel": 1135,
      "ability": 1136,
      "oy": 1137,
      "Ġappro": 1138,
      "Ġcap": 1139,
      "Ġincreased": 1140,
      "Ġstr": 1141,
      "Ġget": 1142,
      "Ġright": 1143,
      "Ġdr": 1144,
      "Ġcharacter": 1145,
      "lu": 1146,
      "Ġfil": 1147,
      "ave": 1148,
      "Ġmemb": 1149,
      "Ġlevels": 1150,
      "ale": 1151,
      "Ġour": 1152,
      "Ġeffects": 1153,
      "Ġoff": 1154,
      "onse": 1155,
      "Ġnormal": 1156,
      "ology": 1157,
      "Ġsens": 1158,
      "Ġvol": 1159,
      "Ġnumber": 1160,
      "Ġprop": 1161,
      "Ġpressure": 1162,
      "ize": 1163,
      "Ġclin": 1164,
      "Ġbi": 1165,
      "ily": 1166,
      "Ġmult": 1167,
      "uch": 1168,
      "get": 1169,
      "Ġret": 1170,
      "Ġmain": 1171,
      "ann": 1172,
      "uss": 1173,
      "Ġthen": 1174,
      "atory": 1175,
      "bin": 1176,
      "Ġequ": 1177,
      "Ġdisease": 1178,
      "Ġear": 1179,
      "Ġreact": 1180,
      "Ġanalysis": 1181,
      "Ġrequ": 1182,
      "Ġopt": 1183,
      "Ġshould": 1184,
      "ness": 1185,
      "ict": 1186,
      "Ġgu": 1187,
      "ove": 1188,
      "ene": 1189,
      "cular": 1190,
      "Ġfind": 1191,
      "Ġconf": 1192,
      "Ġdetermin": 1193,
      "ower": 1194,
      "Ġdown": 1195,
      "Ġposs": 1196,
      "alu": 1197,
      "ably": 1198,
      "Ġsame": 1199,
      "Ġinvest": 1200,
      "usion": 1201,
      "ucle": 1202,
      "Ġline": 1203,
      "eg": 1204,
      "ired": 1205,
      "ĠAl": 1206,
      "Ġla": 1207,
      "Ġmeans": 1208,
      "Ġgrow": 1209,
      "The": 1210,
      "Ġproble": 1211,
      "Ġrece": 1212,
      "Ġpot": 1213,
      "way": 1214,
      "Ġcondition": 1215,
      "Ġhim": 1216,
      "Ġdescrib": 1217,
      "Ġpred": 1218,
      "Ġmechan": 1219,
      "Ġsignal": 1220,
      "Ġ--": 1221,
      "Ġradi": 1222,
      "Ġprovided": 1223,
      "med": 1224,
      "Ġed": 1225,
      "ins": 1226,
      "Ġfrequ": 1227,
      "round": 1228,
      "ife": 1229,
      "oma": 1230,
      "osph": 1231,
      "Ġident": 1232,
      "ension": 1233,
      "Ġtum": 1234,
      "ived": 1235,
      "Ġflow": 1236,
      "Ġresponse": 1237,
      "Ġpol": 1238,
      "Ġmade": 1239,
      "Ġmicro": 1240,
      "alth": 1241,
      "ves": 1242,
      "Ġ198": 1243,
      "Ġleast": 1244,
      "Ġlight": 1245,
      "ĠBut": 1246,
      "Ġtr": 1247,
      "Ġnow": 1248,
      "Ġhand": 1249,
      "Ġset": 1250,
      "endent": 1251,
      "ĠThere": 1252,
      "Ġbel": 1253,
      "iment": 1254,
      "ER": 1255,
      "atus": 1256,
      "nal": 1257,
      "Ġtre": 1258,
      "ening": 1259,
      "Ġfib": 1260,
      "ential": 1261,
      "ew": 1262,
      "cop": 1263,
      "ulated": 1264,
      "Ġep": 1265,
      "duction": 1266,
      "ah": 1267,
      "Ġperiod": 1268,
      "Ġpost": 1269,
      "ĠAs": 1270,
      "Ġhig": 1271,
      "Ġcy": 1272,
      "ert": 1273,
      "Ġimport": 1274,
      "oph": 1275,
      "io": 1276,
      "Ġlower": 1277,
      "Ġobserved": 1278,
      "Ġsmall": 1279,
      "Ġoccur": 1280,
      "Ġmat": 1281,
      "Ġ+": 1282,
      "Ġwithout": 1283,
      "Ġexamin": 1284,
      "sy": 1285,
      "Ġcompared": 1286,
      "Ġimpro": 1287,
      "ven": 1288,
      "Ġbody": 1289,
      "Ġcompris": 1290,
      "ner": 1291,
      "Ġsubject": 1292,
      "cin": 1293,
      "Ġsing": 1294,
      "ption": 1295,
      "ilar": 1296,
      "oh": 1297,
      "ides": 1298,
      "Ġsubst": 1299,
      "Ġantib": 1300,
      "of": 1301,
      "ither": 1302,
      "Ġu": 1303,
      "ross": 1304,
      "Ġcase": 1305,
      "eng": 1306,
      "Ġplas": 1307,
      "Ġhist": 1308,
      "Ġshowed": 1309,
      "uit": 1310,
      "Ġinvestig": 1311,
      "alk": 1312,
      "idence": 1313,
      "Ġincrease": 1314,
      "Ġwhile": 1315,
      "Ġvery": 1316,
      "].": 1317,
      "Ġtechniqu": 1318,
      "rapy": 1319,
      "Ġ=": 1320,
      "Ġcou": 1321,
      "Ġlay": 1322,
      "Ġ)": 1323,
      "Ġsignificantly": 1324,
      "Ġlove": 1325,
      "Ġevalu": 1326,
      "con": 1327,
      "Ġent": 1328,
      "Ġbo": 1329,
      "Ġmember": 1330,
      "Ġgot": 1331,
      "Ġsee": 1332,
      "omen": 1333,
      "Ġchanges": 1334,
      "ivid": 1335,
      "Ġ12": 1336,
      "Ġ[": 1337,
      "Ġconsid": 1338,
      "Ġincludes": 1339,
      "emb": 1340,
      "Ġox": 1341,
      "Ġhydro": 1342,
      "Ġrot": 1343,
      "Ġassociated": 1344,
      "Ġgra": 1345,
      "omy": 1346,
      "Ġdiagn": 1347,
      "ople": 1348,
      "Ġdevice": 1349,
      "ocyt": 1350,
      "ives": 1351,
      "Ġactiv": 1352,
      "Ġwater": 1353,
      "cing": 1354,
      "ality": 1355,
      "ĠTo": 1356,
      "Ġway": 1357,
      "iving": 1358,
      "10": 1359,
      "ĠHow": 1360,
      "ole": 1361,
      "Ġgroups": 1362,
      "Ġtemper": 1363,
      "ĠNo": 1364,
      "Ġgood": 1365,
      "roph": 1366,
      "Ġside": 1367,
      "urther": 1368,
      "Ġdirect": 1369,
      "rug": 1370,
      "Ġdesign": 1371,
      "inding": 1372,
      "Ġz": 1373,
      "osp": 1374,
      "Ġobtained": 1375,
      "ately": 1376,
      "Ġstudies": 1377,
      "hip": 1378,
      "Ġpaper": 1379,
      "Ġspecific": 1380,
      "ts": 1381,
      "Ġchildren": 1382,
      "Ġsequ": 1383,
      "Ġbefore": 1384,
      "Ġpath": 1385,
      "Ġcle": 1386,
      "Ġage": 1387,
      "Ġprogram": 1388,
      "Ġdiscuss": 1389,
      "Ġaddition": 1390,
      "Ġclinical": 1391,
      "Ġselect": 1392,
      "Ġprot": 1393,
      "Ġpers": 1394,
      "omet": 1395,
      "amet": 1396,
      "ĠUn": 1397,
      "ring": 1398,
      "Ġ!": 1399,
      "50": 1400,
      "Ġtub": 1401,
      "ax": 1402,
      "Ġdevelopment": 1403,
      "Ġstructure": 1404,
      "Ġve": 1405,
      "Ġpoint": 1406,
      "Ġcalc": 1407,
      "sp": 1408,
      "Ġportion": 1409,
      "Ġmus": 1410,
      "Ġtype": 1411,
      "ĠCom": 1412,
      "Ġair": 1413,
      "cle": 1414,
      "Ġpass": 1415,
      "Ġvir": 1416,
      "Ġes": 1417,
      "Ġabs": 1418,
      "Ġdeg": 1419,
      "pha": 1420,
      "osition": 1421,
      "ull": 1422,
      "arch": 1423,
      "ĠWhen": 1424,
      "Ġdemon": 1425,
      "Ġmean": 1426,
      "Ġpatient": 1427,
      "other": 1428,
      "led": 1429,
      "cell": 1430,
      "Ġprim": 1431,
      "Ġgre": 1432,
      "Ġcurrent": 1433,
      "Ġthink": 1434,
      "Ġhigher": 1435,
      "Ġsk": 1436,
      "Ġcult": 1437,
      "Ġrecept": 1438,
      "Ġtiss": 1439,
      "apt": 1440,
      "Ġinform": 1441,
      "Ġcat": 1442,
      "imes": 1443,
      "Ġrelative": 1444,
      "Ġcare": 1445,
      "Ġinvol": 1446,
      "Ġagainst": 1447,
      "Ġday": 1448,
      "Ġlarge": 1449,
      "Ġsimilar": 1450,
      "Ġstudied": 1451,
      "Ġpower": 1452,
      "vement": 1453,
      "Ġgrowth": 1454,
      "Ġmechanism": 1455,
      "Ġhere": 1456,
      "Ġhead": 1457,
      "Ġwant": 1458,
      "Ġrest": 1459,
      "row": 1460,
      "ists": 1461,
      "ork": 1462,
      "Ġrespective": 1463,
      "zym": 1464,
      "Ġhealth": 1465,
      "Ġpeople": 1466,
      "Ġstim": 1467,
      "Ġdays": 1468,
      "Ġcontin": 1469,
      "Ġtot": 1470,
      "Ġweight": 1471,
      "rid": 1472,
      "ification": 1473,
      "Ġmany": 1474,
      "itud": 1475,
      "Ġ20": 1476,
      "ug": 1477,
      "Ġbecause": 1478,
      "Ġcaus": 1479,
      "Ġclass": 1480,
      "ung": 1481,
      "Ġpul": 1482,
      "Ġke": 1483,
      "Ġfour": 1484,
      "Ġsingle": 1485,
      "000": 1486,
      "Ġeng": 1487,
      "Ġadj": 1488,
      "ĠFor": 1489,
      "ision": 1490,
      "Ġheart": 1491,
      "Ġmagn": 1492,
      "Ġbeh": 1493,
      "ependent": 1494,
      "Ġsay": 1495,
      "Ġstand": 1496,
      "Ġsw": 1497,
      "ently": 1498,
      "Ġlim": 1499,
      "Ġhyp": 1500,
      "view": 1501,
      "ished": 1502,
      "Ġmake": 1503,
      "Ġmark": 1504,
      "Ġrele": 1505,
      "raction": 1506,
      "jor": 1507,
      "ths": 1508,
      "onal": 1509,
      "Ġpur": 1510,
      "Ġinst": 1511,
      "Ġdrug": 1512,
      "Ġdemonstr": 1513,
      "Ġsit": 1514,
      "az": 1515,
      "ĠÐ": 1516,
      "ted": 1517,
      "ng": 1518,
      "to": 1519,
      "Ġorgan": 1520,
      "Ġrespons": 1521,
      "AT": 1522,
      "ined": 1523,
      "ĠĠĠĠ": 1524,
      "Ġlead": 1525,
      "hel": 1526,
      "Ġincluding": 1527,
      "Ġang": 1528,
      "oss": 1529,
      "minist": 1530,
      "Ġintra": 1531,
      "ty": 1532,
      "Ġcompon": 1533,
      "ission": 1534,
      "ymph": 1535,
      "me": 1536,
      "Ġextend": 1537,
      "Ġav": 1538,
      "Ġeither": 1539,
      "Ġevery": 1540,
      "Ġpattern": 1541,
      "itro": 1542,
      "oly": 1543,
      "ool": 1544,
      "itis": 1545,
      "Ġlook": 1546,
      "Ġfield": 1547,
      "/-": 1548,
      "Ġsynt": 1549,
      "Ġinformation": 1550,
      "Ġpop": 1551,
      "Ġlife": 1552,
      "Ġdistrib": 1553,
      "Ġcount": 1554,
      "oper": 1555,
      "Ġcombin": 1556,
      "Ġpresence": 1557,
      "Ġexpl": 1558,
      "Ġregion": 1559,
      "Ġmuch": 1560,
      "Ġrepres": 1561,
      "Ġphys": 1562,
      "Ġparticular": 1563,
      "uted": 1564,
      "ON": 1565,
      "Ġadd": 1566,
      "ouse": 1567,
      "erv": 1568,
      "Ġplasma": 1569,
      "iron": 1570,
      "ode": 1571,
      "over": 1572,
      "aking": 1573,
      "Ġtotal": 1574,
      "air": 1575,
      "Ġrats": 1576,
      "Ġmajor": 1577,
      "Ġwall": 1578,
      "ores": 1579,
      "Ġtemperature": 1580,
      "Ġisol": 1581,
      "Ġapplic": 1582,
      "ĠDNA": 1583,
      "Ġeven": 1584,
      "Ġbre": 1585,
      "II": 1586,
      "Ġwee": 1587,
      "Ġfam": 1588,
      "Ġsym": 1589,
      "Ġcircuit": 1590,
      "Ġconcentr": 1591,
      "Ġcyt": 1592,
      "Ġlymph": 1593,
      "Ġax": 1594,
      "Ġimportant": 1595,
      "Ġbased": 1596,
      "Ġread": 1597,
      "Ġmount": 1598,
      "Ġcorrel": 1599,
      "ple": 1600,
      "ĠThey": 1601,
      "Ġ+/-": 1602,
      "IN": 1603,
      "ices": 1604,
      "estion": 1605,
      "Ġsystems": 1606,
      "...": 1607,
      "itor": 1608,
      "Ġstate": 1609,
      "ampl": 1610,
      "ĠPro": 1611,
      "Ġadv": 1612,
      "Ġfluid": 1613,
      "por": 1614,
      "ET": 1615,
      "ography": 1616,
      "Ġproduct": 1617,
      "Ġcommun": 1618,
      "Ġorder": 1619,
      "Ġgiven": 1620,
      "ety": 1621,
      "ĠAll": 1622,
      "ters": 1623,
      "ince": 1624,
      "ten": 1625,
      "ittle": 1626,
      "arm": 1627,
      "hesis": 1628,
      "Ġnucle": 1629,
      "Ġsever": 1630,
      "ĠâĢ": 1631,
      "Ġcall": 1632,
      "Ġdoes": 1633,
      "Ġinit": 1634,
      "Ġplate": 1635,
      "--": 1636,
      "aneous": 1637,
      "ĠRe": 1638,
      "na": 1639,
      "Ġfree": 1640,
      "Ġcomplex": 1641,
      "Ġresist": 1642,
      "Ġsepar": 1643,
      "Ġcarri": 1644,
      "Ġprob": 1645,
      "ST": 1646,
      "Ġformed": 1647,
      "Ġder": 1648,
      "Ġadminist": 1649,
      "Ġmg": 1650,
      "Ġsurg": 1651,
      "Ġrelations": 1652,
      "amine": 1653,
      "orph": 1654,
      "Ġallow": 1655,
      "aratus": 1656,
      "resp": 1657,
      "ĠAt": 1658,
      "Ġconditions": 1659,
      "Ġlab": 1660,
      "Ġ15": 1661,
      "ets": 1662,
      "astic": 1663,
      "Ġris": 1664,
      "19": 1665,
      "Ġ@!": 1666,
      "ressed": 1667,
      "ronic": 1668,
      "Ġmeasured": 1669,
      "Ġphosph": 1670,
      "Ġmembran": 1671,
      "ually": 1672,
      "ample": 1673,
      "Ġarter": 1674,
      "ardi": 1675,
      "Ġgeneral": 1676,
      "ured": 1677,
      "ged": 1678,
      "ream": 1679,
      "Ġconcentration": 1680,
      "Ġwomen": 1681,
      "man": 1682,
      "Ġserum": 1683,
      "Ġprovide": 1684,
      "Ġchange": 1685,
      "Ġdel": 1686,
      "Ġdue": 1687,
      "Ġdeveloped": 1688,
      "Ġcompar": 1689,
      "arent": 1690,
      "Ġspe": 1691,
      "Ġenzym": 1692,
      "Ġvis": 1693,
      "Ġmal": 1694,
      "Ġopen": 1695,
      "Ġarea": 1696,
      "Ġgene": 1697,
      "xt": 1698,
      "Ġauth": 1699,
      "Ġpossible": 1700,
      "Ġdescribed": 1701,
      "by": 1702,
      "Ġremain": 1703,
      "OR": 1704,
      "els": 1705,
      "Ġtake": 1706,
      "ergy": 1707,
      "Ġ18": 1708,
      "yn": 1709,
      "Ġphase": 1710,
      "Ġindivid": 1711,
      "Ġcarb": 1712,
      "Ġcontroll": 1713,
      "nces": 1714,
      "Ġpresented": 1715,
      "Ġsour": 1716,
      "Ġhel": 1717,
      "Ġbu": 1718,
      "ĠWhat": 1719,
      "ased": 1720,
      "Ġshown": 1721,
      "ãģ": 1722,
      "Ġ...": 1723,
      "ĠQ": 1724,
      "sc": 1725,
      "Ġdecreas": 1726,
      "Ġlocal": 1727,
      "Ġfactor": 1728,
      "medi": 1729,
      "Ġmix": 1730,
      "inc": 1731,
      "Ġrecord": 1732,
      "ray": 1733,
      "Ġelectro": 1734,
      "Ġfrequency": 1735,
      "Ġfac": 1736,
      "Ġrole": 1737,
      "Ġamong": 1738,
      "ival": 1739,
      "Ġlittle": 1740,
      "ank": 1741,
      "pat": 1742,
      "Ġplace": 1743,
      "Ġmole": 1744,
      "ĠX": 1745,
      "Ġvalues": 1746,
      "ier": 1747,
      "Ġapparatus": 1748,
      "Ġnever": 1749,
      "though": 1750,
      "Ġhem": 1751,
      "ĠThat": 1752,
      "Ġtransm": 1753,
      "read": 1754,
      "Ġappear": 1755,
      "ulin": 1756,
      "Ġfollowing": 1757,
      "Ġoutput": 1758,
      "lor": 1759,
      "Ġcontact": 1760,
      "ogn": 1761,
      "Ġlayer": 1762,
      "iple": 1763,
      "ĠĠĠ": 1764,
      "fficient": 1765,
      "day": 1766,
      "imin": 1767,
      "Ġassess": 1768,
      "Ġprevious": 1769,
      "ĠOn": 1770,
      "Ġrespectively": 1771,
      "Ġgreater": 1772,
      "ĠHowever": 1773,
      "Ġcomput": 1774,
      "Ġcommon": 1775,
      "izing": 1776,
      "Ġcome": 1777,
      "self": 1778,
      "Ġthough": 1779,
      "Ġconduct": 1780,
      "Ġer": 1781,
      "Ġhal": 1782,
      "lied": 1783,
      "meric": 1784,
      "Ġreal": 1785,
      "ensity": 1786,
      "12": 1787,
      "Ġfurther": 1788,
      "ify": 1789,
      "Ã©": 1790,
      "ĠIf": 1791,
      "Ġphot": 1792,
      "Ġvarious": 1793,
      "Ġmust": 1794,
      "Ġalpha": 1795,
      "Ġsch": 1796,
      "Ġexperiment": 1797,
      "Ġsuper": 1798,
      "Ġaround": 1799,
      "Ġanother": 1800,
      "Ġconsist": 1801,
      "Ġopp": 1802,
      "Ġ30": 1803,
      "Ġrange": 1804,
      "Ġtherapy": 1805,
      "com": 1806,
      "Ġanim": 1807,
      "Ġsal": 1808,
      "Ġemb": 1809,
      "odies": 1810,
      "Ġtissue": 1811,
      "Ġvalue": 1812,
      "Ġsuc": 1813,
      "Ġinflu": 1814,
      "Ġaffect": 1815,
      "Ġreduced": 1816,
      "Ġassemb": 1817,
      "Ġpotential": 1818,
      "Ġdetermined": 1819,
      "Ġspect": 1820,
      "ocytes": 1821,
      "Ġleft": 1822,
      "Ġcour": 1823,
      "aced": 1824,
      "Ġbinding": 1825,
      "oms": 1826,
      "Ġplay": 1827,
      "Ġcontinu": 1828,
      "Ġeffective": 1829,
      "Ġut": 1830,
      "Ġconcentrations": 1831,
      "Ġfat": 1832,
      "Ġtreated": 1833,
      "Ġearly": 1834,
      "%)": 1835,
      "Ġey": 1836,
      "Ġmut": 1837,
      "hing": 1838,
      "Ġgas": 1839,
      "Ġfram": 1840,
      "abol": 1841,
      "Ġi": 1842,
      "Ġcharacterist": 1843,
      "opl": 1844,
      "eah": 1845,
      "Ġfactors": 1846,
      "rical": 1847,
      "Ġcontaining": 1848,
      "sych": 1849,
      "Ġmar": 1850,
      "erence": 1851,
      "ĠOh": 1852,
      "Ġstill": 1853,
      "Ġpositive": 1854,
      "abl": 1855,
      "Ġpub": 1856,
      "ĠSe": 1857,
      "Ġold": 1858,
      "Ġconnected": 1859,
      "Ġamount": 1860,
      "Ġprof": 1861,
      "Ġdetect": 1862,
      "osure": 1863,
      "rol": 1864,
      "Ġur": 1865,
      "Ġrelationship": 1866,
      "ances": 1867,
      "Ġproced": 1868,
      "Ġseveral": 1869,
      "AN": 1870,
      "rm": 1871,
      "ype": 1872,
      "Ġperformed": 1873,
      "Ġdispl": 1874,
      "Ġinteg": 1875,
      "Ġche": 1876,
      "âĢĻ": 1877,
      "hemical": 1878,
      "Ġmonths": 1879,
      "Ġsubjects": 1880,
      "Ġrepresent": 1881,
      "Ġalong": 1882,
      "Ġpan": 1883,
      "ences": 1884,
      "ĠShe": 1885,
      "Ġbehav": 1886,
      "Ġ14": 1887,
      "Ġnet": 1888,
      "Ġ#": 1889,
      "Ġlast": 1890,
      "Ġfail": 1891,
      "Ġbeta": 1892,
      "ibility": 1893,
      "Ġpropert": 1894,
      "Ġpract": 1895,
      "Ġreported": 1896,
      "Ġanti": 1897,
      "AR": 1898,
      "ird": 1899,
      "ison": 1900,
      "Ġcompound": 1901,
      "Ġcrit": 1902,
      "Ġles": 1903,
      "ules": 1904,
      "ways": 1905,
      "Ġproblem": 1906,
      "Ġ199": 1907,
      "Ġter": 1908,
      "Ġantig": 1909,
      "arb": 1910,
      "aled": 1911,
      "Ġbase": 1912,
      "Ġvent": 1913,
      "Ġproduced": 1914,
      "port": 1915,
      "clud": 1916,
      "Ġpercent": 1917,
      "Ġunit": 1918,
      "uk": 1919,
      "verse": 1920,
      "erc": 1921,
      "Ġinject": 1922,
      "ections": 1923,
      "CT": 1924,
      "rag": 1925,
      "Ġca": 1926,
      "ength": 1927,
      "Ġupon": 1928,
      "here": 1929,
      "ĠÎ": 1930,
      "Ġcross": 1931,
      "Ġobject": 1932,
      "ruction": 1933,
      "Ġdiscussed": 1934,
      "Ġlip": 1935,
      "gor": 1936,
      "pper": 1937,
      "Ġestim": 1938,
      "Ġchrom": 1939,
      "Ġcut": 1940,
      "Ġbro": 1941,
      "Ġmethods": 1942,
      "itch": 1943,
      "Ġproduction": 1944,
      "Ġturn": 1945,
      "ining": 1946,
      "Ġindu": 1947,
      "Ġparamet": 1948,
      "Ġrelated": 1949,
      "ler": 1950,
      "lex": 1951,
      "Ġ;": 1952,
      "Ġliqu": 1953,
      "oles": 1954,
      "Ġtop": 1955,
      "uration": 1956,
      "ott": 1957,
      "ĠDe": 1958,
      "ering": 1959,
      "Ġinteract": 1960,
      "ĠSo": 1961,
      "Ġfem": 1962,
      "čĠ": 1963,
      "Ġstrain": 1964,
      "Ġalk": 1965,
      "Ġperformance": 1966,
      "rast": 1967,
      "Ġdose": 1968,
      "orn": 1969,
      "Ġdirection": 1970,
      "Ġprimary": 1971,
      "ump": 1972,
      "Ġworld": 1973,
      "Ġtumor": 1974,
      "ars": 1975,
      "Ġtechnique": 1976,
      "ored": 1977,
      "ense": 1978,
      "Ġrese": 1979,
      "Ġreve": 1980,
      "ience": 1981,
      "Ġexpression": 1982,
      "ĠCl": 1983,
      "Ġexamined": 1984,
      "Ġfeel": 1985,
      "oses": 1986,
      "Ġdont": 1987,
      "Ġ11": 1988,
      "ploy": 1989,
      "Ġet": 1990,
      "ĠIs": 1991,
      "rot": 1992,
      "land": 1993,
      "Ġshort": 1994,
      "Ġseem": 1995,
      "Ġaway": 1996,
      "DS": 1997,
      "amic": 1998,
      "respond": 1999,
      "Ġenergy": 2000,
      "Ġlater": 2001,
      "plic": 2002,
      "Ġquant": 2003,
      "Ġimage": 2004,
      "ethyl": 2005,
      "omic": 2006,
      "Ġprom": 2007,
      "Ġaction": 2008,
      "ume": 2009,
      "ĠEx": 2010,
      "Ġcancer": 2011,
      "riend": 2012,
      "Ġsampl": 2013,
      "Ġneu": 2014,
      "sequ": 2015,
      "ĠSp": 2016,
      "lement": 2017,
      "orb": 2018,
      "viron": 2019,
      "oint": 2020,
      "Ġelement": 2021,
      "Ġ50": 2022,
      "alle": 2023,
      "Ġlat": 2024,
      "ĠAmeric": 2025,
      "agement": 2026,
      "atures": 2027,
      "Ġste": 2028,
      "Ġvirus": 2029,
      "Ġclear": 2030,
      "Ġ13": 2031,
      "Ġsom": 2032,
      "Ġdifferences": 2033,
      "Ġapproach": 2034,
      "ensive": 2035,
      "Ġtoo": 2036,
      "amm": 2037,
      "Ġgoing": 2038,
      "Ġpair": 2039,
      "ĠMr": 2040,
      "roscop": 2041,
      "Ġexc": 2042,
      "Ġcer": 2043,
      "Ġfeed": 2044,
      "ones": 2045,
      "Ġphen": 2046,
      "Ġcry": 2047,
      "Ġown": 2048,
      "Ġmen": 2049,
      "Ġtimes": 2050,
      "Ġliquid": 2051,
      "Ġneg": 2052,
      "ason": 2053,
      "ulf": 2054,
      "ocial": 2055,
      "ocy": 2056,
      "stand": 2057,
      "Ġsil": 2058,
      "bl": 2059,
      "Ġsize": 2060,
      "ĠOne": 2061,
      "Ġstart": 2062,
      "Ġrun": 2063,
      "Ġcomplete": 2064,
      "Ġcorrespond": 2065,
      "Ġgreat": 2066,
      "Ġhous": 2067,
      "Ġrisk": 2068,
      "Ġlet": 2069,
      "Ġcham": 2070,
      "chie": 2071,
      "Ġbetter": 2072,
      "rome": 2073,
      "Ġ16": 2074,
      "Ġhyper": 2075,
      "Ġsuccess": 2076,
      "Ġproblems": 2077,
      "ury": 2078,
      "Ġserv": 2079,
      "ES": 2080,
      "Ġdiagnosis": 2081,
      "ised": 2082,
      "Ġsubstant": 2083,
      "aps": 2084,
      "app": 2085,
      "Ġreview": 2086,
      "erest": 2087,
      "be": 2088,
      "aging": 2089,
      "ĠWith": 2090,
      "otic": 2091,
      "Ġcoupl": 2092,
      "aces": 2093,
      "Ġmetabol": 2094,
      "Ġfindings": 2095,
      "Ġapplied": 2096,
      "Ġvalve": 2097,
      "ours": 2098,
      "Ġmembers": 2099,
      "Ġblock": 2100,
      "Ġliver": 2101,
      "Ġdom": 2102,
      "Ġplural": 2103,
      "Ġnight": 2104,
      "Ġtak": 2105,
      "Ġdisp": 2106,
      "Ġinduced": 2107,
      "lf": 2108,
      "olution": 2109,
      "ĠII": 2110,
      "reg": 2111,
      "Ġoperation": 2112,
      "ape": 2113,
      "Ġmembrane": 2114,
      "Ġheat": 2115,
      "Ġenc": 2116,
      "ascular": 2117,
      "Ġcomprises": 2118,
      "Ġhelp": 2119,
      "ook": 2120,
      "char": 2121,
      "gether": 2122,
      "Ġtogether": 2123,
      "Ġseen": 2124,
      "Ġartic": 2125,
      "ĠRes": 2126,
      "Ġrad": 2127,
      "Ġ24": 2128,
      "que": 2129,
      "iency": 2130,
      "Ġmight": 2131,
      "Ġuseful": 2132,
      "Ġenh": 2133,
      "Ġstandard": 2134,
      "Ġill": 2135,
      "Ġdig": 2136,
      "Ġinfection": 2137,
      "ule": 2138,
      "Ġstrong": 2139,
      "Ġrap": 2140,
      "Ġpain": 2141,
      "ental": 2142,
      "EN": 2143,
      "iter": 2144,
      "Ġdepend": 2145,
      "Ġassembly": 2146,
      "lection": 2147,
      "Ġhom": 2148,
      "Ġactive": 2149,
      "ators": 2150,
      "Ġachie": 2151,
      "anced": 2152,
      "uck": 2153,
      "Ġdecreased": 2154,
      "20": 2155,
      "ĠAd": 2156,
      "vention": 2157,
      "Ġwa": 2158,
      "Ġgive": 2159,
      "Ġreaction": 2160,
      "Ġtransfer": 2161,
      "urs": 2162,
      "ĠNew": 2163,
      "ologic": 2164,
      "Ġcoll": 2165,
      "Ġproject": 2166,
      "Ġprec": 2167,
      "Ġfin": 2168,
      "Ġpredict": 2169,
      "Ġchann": 2170,
      "Ġresearch": 2171,
      "yz": 2172,
      "aby": 2173,
      "Ġsubstr": 2174,
      "Ġredu": 2175,
      "Ġmetal": 2176,
      "Ġ$": 2177,
      "rict": 2178,
      "Ġprol": 2179,
      "Ġproperties": 2180,
      "ront": 2181,
      "Ġmice": 2182,
      "Ġda": 2183,
      "Ġsolution": 2184,
      "IV": 2185,
      "Ġtermin": 2186,
      "Ġsecret": 2187,
      "Ġinvention": 2188,
      "Ġfive": 2189,
      "Ġplurality": 2190,
      "less": 2191,
      "Ġsem": 2192,
      "plant": 2193,
      "Ġdistribution": 2194,
      "ĠZ": 2195,
      "Ġsus": 2196,
      "Ġestabl": 2197,
      "Ġenviron": 2198,
      "Ġlas": 2199,
      "Ġmaxim": 2200,
      "Ġnear": 2201,
      "sw": 2202,
      "iting": 2203,
      "Ġadapt": 2204,
      "Ġreceptor": 2205,
      "Ġsource": 2206,
      "Ġevidence": 2207,
      "Ġfix": 2208,
      "Ġx": 2209,
      "Ġacute": 2210,
      "Ġbrain": 2211,
      "Ġbelie": 2212,
      "Ġvitro": 2213,
      "Ġmass": 2214,
      "Ġcycl": 2215,
      "emia": 2216,
      "Ġpsych": 2217,
      "Ġtoward": 2218,
      "Ġabove": 2219,
      "Ġir": 2220,
      "ulating": 2221,
      "Ġdemonstrated": 2222,
      "Ġisolated": 2223,
      "Ġview": 2224,
      "Ġcause": 2225,
      "Ġarran": 2226,
      "Ġconsider": 2227,
      "Ġcardi": 2228,
      "ospital": 2229,
      "utions": 2230,
      "Ġnetw": 2231,
      "Ġcomposition": 2232,
      "Ġplan": 2233,
      "iation": 2234,
      "Ġknown": 2235,
      "Ġhome": 2236,
      "ĠWell": 2237,
      "Ġunt": 2238,
      "ges": 2239,
      "Ġroll": 2240,
      "Ġcarcin": 2241,
      "Ġhard": 2242,
      "induced": 2243,
      "och": 2244,
      "Ġstep": 2245,
      "Ġhold": 2246,
      "Ġcost": 2247,
      ".,": 2248,
      "ĠÃ": 2249,
      "umin": 2250,
      "Ġrates": 2251,
      "ects": 2252,
      "Ġupper": 2253,
      "Ġcop": 2254,
      "rate": 2255,
      "Ġloss": 2256,
      "Ġleg": 2257,
      "Ġinvestigated": 2258,
      "Ġhowever": 2259,
      "Ġenzyme": 2260,
      "Ġap": 2261,
      "Ġtell": 2262,
      "Ġsequence": 2263,
      "Ġorig": 2264,
      "Ġpopulation": 2265,
      "Ġ×": 2266,
      "verage": 2267,
      "allel": 2268,
      "Ġprevent": 2269,
      "Ġfamily": 2270,
      "like": 2271,
      "hydro": 2272,
      "Ġtry": 2273,
      "Ġtherm": 2274,
      "aw": 2275,
      "oice": 2276,
      "Ðµ": 2277,
      "eral": 2278,
      "Ġapproxim": 2279,
      "Ġmounted": 2280,
      "ulations": 2281,
      "11": 2282,
      "ivers": 2283,
      "Ġcentral": 2284,
      "Ġ100": 2285,
      "Ġdifference": 2286,
      "Ġ197": 2287,
      "ta": 2288,
      "Ġprovides": 2289,
      "orus": 2290,
      "Ġgon": 2291,
      "Ġreduction": 2292,
      "Ġscre": 2293,
      "Ġdetected": 2294,
      "line": 2295,
      "Ġfew": 2296,
      "Ġsurv": 2297,
      "vere": 2298,
      "ĠDo": 2299,
      "ĠLe": 2300,
      "Ġinterest": 2301,
      "aring": 2302,
      "gorith": 2303,
      "Ġhousing": 2304,
      "ĠÂ": 2305,
      "Ġrecogn": 2306,
      "Ġinput": 2307,
      "Ġsix": 2308,
      "Ġque": 2309,
      "sup": 2310,
      "Ġrequired": 2311,
      "Ġformation": 2312,
      "rad": 2313,
      "tage": 2314,
      "ermine": 2315,
      "IC": 2316,
      "sh": 2317,
      "Ġput": 2318,
      "Ġwhether": 2319,
      "mit": 2320,
      "Ġmultiple": 2321,
      "Ġclose": 2322,
      "pro": 2323,
      "Ġstat": 2324,
      "Ġdetermine": 2325,
      "Ġoptical": 2326,
      "fact": 2327,
      "Ġavail": 2328,
      "Ġproteins": 2329,
      "Ġbar": 2330,
      "Ġload": 2331,
      "operative": 2332,
      "val": 2333,
      "Ġamin": 2334,
      "Ġelements": 2335,
      "Ġgluc": 2336,
      "Ġdou": 2337,
      "Ġmedium": 2338,
      "AL": 2339,
      "oxy": 2340,
      "Ġadult": 2341,
      "Ġchamber": 2342,
      "Ġlength": 2343,
      "ĠSh": 2344,
      "Ġ25": 2345,
      "Ġminim": 2346,
      "ger": 2347,
      "ĠCon": 2348,
      "Ġhon": 2349,
      "ively": 2350,
      "ĠMy": 2351,
      "gl": 2352,
      "Ġemploy": 2353,
      "Ġspace": 2354,
      "Ġcre": 2355,
      "ached": 2356,
      "ographic": 2357,
      "ae": 2358,
      "Ġcaused": 2359,
      "Ġ17": 2360,
      "Ġyoung": 2361,
      "Ġselected": 2362,
      "Ġsat": 2363,
      "Ġconcer": 2364,
      "Ġmuscle": 2365,
      "Ġratio": 2366,
      "Ð¾": 2367,
      "14": 2368,
      "Ġadministration": 2369,
      "AM": 2370,
      "itted": 2371,
      "ipher": 2372,
      "Ġindicate": 2373,
      "Ġbone": 2374,
      "In": 2375,
      "Ġrapid": 2376,
      "irl": 2377,
      "âĢĿ": 2378,
      "ĠCa": 2379,
      "Ġalgorith": 2380,
      "itude": 2381,
      "vey": 2382,
      "Ġface": 2383,
      "ylind": 2384,
      "Ġsection": 2385,
      "closed": 2386,
      "Ġaccord": 2387,
      "ste": 2388,
      "Ġult": 2389,
      "ched": 2390,
      "ware": 2391,
      "ds": 2392,
      "ients": 2393,
      "Ġcontrast": 2394,
      "Ġself": 2395,
      "vent": 2396,
      "Ġcomprising": 2397,
      "Ġwr": 2398,
      "Ġtru": 2399,
      "Ġcharacteristics": 2400,
      "Ġtechniques": 2401,
      "Ġsynd": 2402,
      "Ġweeks": 2403,
      "rin": 2404,
      "Ġparallel": 2405,
      "Ġrelease": 2406,
      "any": 2407,
      "Ġcertain": 2408,
      "olic": 2409,
      "Ġcourse": 2410,
      "Ġantibodies": 2411,
      "Ġanimals": 2412,
      "ope": 2413,
      "ilit": 2414,
      "ument": 2415,
      "ional": 2416,
      "Ġbeam": 2417,
      "čĠč": 2418,
      "Ġsex": 2419,
      "Ġcontent": 2420,
      "Ġsince": 2421,
      "Ġchronic": 2422,
      "Ġiss": 2423,
      "Ġsle": 2424,
      "Ġenvironment": 2425,
      "Ġdu": 2426,
      "Ġnecess": 2427,
      "ling": 2428,
      "Ġintro": 2429,
      "Ġrevealed": 2430,
      "ĠAfter": 2431,
      "Ġimproved": 2432,
      "gin": 2433,
      "Ġsympt": 2434,
      "olar": 2435,
      "nment": 2436,
      "Ġbus": 2437,
      "iments": 2438,
      "ĠMe": 2439,
      "ĠSc": 2440,
      "Ġeas": 2441,
      "oe": 2442,
      "ication": 2443,
      "Ġindividual": 2444,
      "Ġschool": 2445,
      "mic": 2446,
      "Ġsignals": 2447,
      "Ġdam": 2448,
      "Ġreceived": 2449,
      "ended": 2450,
      "Ġcomponents": 2451,
      "Ġcylind": 2452,
      "Ġadjust": 2453,
      "Ġparameters": 2454,
      "Ġfore": 2455,
      "Ġasp": 2456,
      "Ġgly": 2457,
      "cies": 2458,
      "ancy": 2459,
      "Ġband": 2460,
      "kg": 2461,
      "Ġframe": 2462,
      "icon": 2463,
      "Ġampl": 2464,
      "ĠBy": 2465,
      "ĠPA": 2466,
      "Ġseries": 2467,
      "Ġmach": 2468,
      "Ġcorre": 2469,
      "Ġresid": 2470,
      "ĠIts": 2471,
      "Ġareas": 2472,
      "oot": 2473,
      "Ġcapac": 2474,
      "Ġlung": 2475,
      "Ġeduc": 2476,
      "Ġperipher": 2477,
      "Ġecon": 2478,
      "inf": 2479,
      "ĠIg": 2480,
      "Ġunderstand": 2481,
      "Ġseg": 2482,
      "Ġconsidered": 2483,
      "Ġfoc": 2484,
      "Ġmotor": 2485,
      "Ġresistance": 2486,
      "Ġexperimental": 2487,
      "itivity": 2488,
      "omer": 2489,
      "pec": 2490,
      "normal": 2491,
      "Ġmovement": 2492,
      "urb": 2493,
      "osite": 2494,
      "ED": 2495,
      "ened": 2496,
      "Ġ40": 2497,
      "Ġcomputer": 2498,
      "ror": 2499,
      "Ġexist": 2500,
      "Ġtw": 2501,
      "lying": 2502,
      "Ġaff": 2503,
      "Ġdeath": 2504,
      "Ġstop": 2505,
      "Ġrenal": 2506,
      "Ġsocial": 2507,
      "ĠAT": 2508,
      "Ġdecrease": 2509,
      "Ġvolume": 2510,
      "icle": 2511,
      "Ġlear": 2512,
      "Ġver": 2513,
      "Ġoften": 2514,
      "ids": 2515,
      "othe": 2516,
      "ĠâĢľ": 2517,
      "Ġvoltage": 2518,
      "Ġsite": 2519,
      "Ġalways": 2520,
      "ash": 2521,
      "Ġelectron": 2522,
      "Ġlines": 2523,
      "Ġsamples": 2524,
      "ĠAr": 2525,
      "Ġantigen": 2526,
      "Ġconclud": 2527,
      "Ġspecies": 2528,
      "Ġtransform": 2529,
      "Ġtypes": 2530,
      "ables": 2531,
      "Ġsynthesis": 2532,
      "Ġmid": 2533,
      "Ġprepar": 2534,
      "ĠPh": 2535,
      "Ġrecom": 2536,
      "Ġapplication": 2537,
      "05": 2538,
      "Ġsimple": 2539,
      "Ġtube": 2540,
      "inary": 2541,
      "Ġanalyz": 2542,
      "Ġkin": 2543,
      "imension": 2544,
      "Ġsha": 2545,
      "ĠTwo": 2546,
      "Ġantibody": 2547,
      "aling": 2548,
      "dependent": 2549,
      "Ġcontrols": 2550,
      "Ġoptim": 2551,
      "Ġpublic": 2552,
      "Ġess": 2553,
      "Ġhypert": 2554,
      "25": 2555,
      "Ġmagnetic": 2556,
      "Ġinj": 2557,
      "Ġbacter": 2558,
      "Ġeffic": 2559,
      "ĠAb": 2560,
      "Ġincreasing": 2561,
      "Ġhalf": 2562,
      "enz": 2563,
      "Ð°": 2564,
      "Ġresponses": 2565,
      "Ġquestion": 2566,
      "RA": 2567,
      "Ġtar": 2568,
      "Ġcontrib": 2569,
      "15": 2570,
      "Ġreflect": 2571,
      "Ġinner": 2572,
      "gn": 2573,
      "Ġves": 2574,
      "Ġsyn": 2575,
      "Ġidentified": 2576,
      "erse": 2577,
      "Ġalone": 2578,
      "Ġauthors": 2579,
      "Ġbound": 2580,
      "Ġchain": 2581,
      "Ġbehavior": 2582,
      "acent": 2583,
      "Ã¤": 2584,
      "Ġouter": 2585,
      "Ġcere": 2586,
      "met": 2587,
      "Ġfront": 2588,
      "ister": 2589,
      "Ġsurgery": 2590,
      "istic": 2591,
      "Ġcorresponding": 2592,
      "Ġbaby": 2593,
      "iated": 2594,
      "thing": 2595,
      "Ġinhibit": 2596,
      "EL": 2597,
      "Ġgast": 2598,
      "Ġcomponent": 2599,
      "RNA": 2600,
      "IS": 2601,
      "Ġinser": 2602,
      "Ġeth": 2603,
      "rees": 2604,
      "Ġbest": 2605,
      "ura": 2606,
      "cellular": 2607,
      "Ġlaser": 2608,
      "etermin": 2609,
      "Ġforce": 2610,
      "onic": 2611,
      "year": 2612,
      "ething": 2613,
      "Ġwhereas": 2614,
      "Ġsyndrome": 2615,
      "eration": 2616,
      "Ġinvolved": 2617,
      "Ġkind": 2618,
      "Ġautom": 2619,
      "Ġperf": 2620,
      "rated": 2621,
      "Ġstage": 2622,
      "cont": 2623,
      "Ġtransport": 2624,
      "Ġavailable": 2625,
      "ulate": 2626,
      "Ġwind": 2627,
      "rior": 2628,
      "hetic": 2629,
      "Ġutil": 2630,
      "Ġsubstrate": 2631,
      "ots": 2632,
      "30": 2633,
      "Ġstor": 2634,
      "Ġrequire": 2635,
      "Ġask": 2636,
      "Ġmedical": 2637,
      "ula": 2638,
      "Ġfraction": 2639,
      "utes": 2640,
      "co": 2641,
      "monary": 2642,
      "Ġfast": 2643,
      "Ġsitu": 2644,
      "Ġkeep": 2645,
      "Ġnat": 2646,
      "Ġgran": 2647,
      "Ġspecial": 2648,
      "Ġfilm": 2649,
      "Ġtalk": 2650,
      "itting": 2651,
      "Ġfar": 2652,
      "Ġpreviously": 2653,
      "Ġbasis": 2654,
      "Ġskin": 2655,
      "Ġtool": 2656,
      "set": 2657,
      "gram": 2658,
      "Ġwave": 2659,
      "Ġgr": 2660,
      "Ġfall": 2661,
      "Ġcontinuous": 2662,
      "oney": 2663,
      "roup": 2664,
      "Ġmemory": 2665,
      "hers": 2666,
      "ils": 2667,
      "Ġnegative": 2668,
      "Ġswitch": 2669,
      "Ġprocessing": 2670,
      "Ġwherein": 2671,
      "ians": 2672,
      "Ġmm": 2673,
      "ift": 2674,
      "Ġproposed": 2675,
      "Ġexposure": 2676,
      "Ġcomplic": 2677,
      "ained": 2678,
      "Ġlinear": 2679,
      "Ġinitial": 2680,
      "icult": 2681,
      "Ġoxy": 2682,
      "Ġfollowed": 2683,
      "Ġeyes": 2684,
      "Ġsevere": 2685,
      "Ġthus": 2686,
      "ching": 2687,
      "Ġspeed": 2688,
      "Ġsays": 2689,
      "cri": 2690,
      "Ġindependent": 2691,
      "ilt": 2692,
      "Ġcarbon": 2693,
      "Ġcombination": 2694,
      "ĠBe": 2695,
      "Ġpast": 2696,
      "Ġvac": 2697,
      "Ġdensity": 2698,
      "18": 2699,
      "Ġbene": 2700,
      "Ġhapp": 2701,
      "ush": 2702,
      "Ġsites": 2703,
      "Ġtarget": 2704,
      "ĠAlthough": 2705,
      "ef": 2706,
      "Ġparticularly": 2707,
      "akes": 2708,
      "Ġdie": 2709,
      "use": 2710,
      "term": 2711,
      "Ġepit": 2712,
      "Ġarm": 2713,
      "Ġinterf": 2714,
      "âĢĵ": 2715,
      "Ġaccount": 2716,
      "Ġmale": 2717,
      "Ġmill": 2718,
      "Ġconver": 2719,
      "Ġann": 2720,
      "Ġthought": 2721,
      "Ġred": 2722,
      "Ġwhole": 2723,
      "Ġsubstantially": 2724,
      "Ġion": 2725,
      "Ġculture": 2726,
      "aining": 2727,
      "Ġamino": 2728,
      "omp": 2729,
      "Ġdrive": 2730,
      "ĠNow": 2731,
      "Ġpolymer": 2732,
      "resh": 2733,
      "Ġmanagement": 2734,
      "%,": 2735,
      "Ġoccurred": 2736,
      "Ġcant": 2737,
      "Ġaltern": 2738,
      "Ġconfir": 2739,
      "raw": 2740,
      "Ġveh": 2741,
      "Ġmolecular": 2742,
      "pped": 2743,
      "16": 2744,
      "iness": 2745,
      "Ġwar": 2746,
      "Ġopening": 2747,
      "Ġhospital": 2748,
      "Ġcarried": 2749,
      "GF": 2750,
      "ask": 2751,
      "Ġbott": 2752,
      "radi": 2753,
      "Ġgirl": 2754,
      "ina": 2755,
      "andom": 2756,
      "Ġdetection": 2757,
      "ptide": 2758,
      "ledge": 2759,
      "Ġprocedure": 2760,
      "Ġthereof": 2761,
      "Ġshaft": 2762,
      "aged": 2763,
      "ned": 2764,
      "esis": 2765,
      "Ġaverage": 2766,
      "ĠTH": 2767,
      "Ġregard": 2768,
      "13": 2769,
      "Ġreally": 2770,
      "Ġring": 2771,
      "Ġhours": 2772,
      "AB": 2773,
      "used": 2774,
      "Ġgover": 2775,
      "ries": 2776,
      "Ġlesions": 2777,
      "Ġstress": 2778,
      "order": 2779,
      "Ġmeasurements": 2780,
      "Ġbr": 2781,
      "Ġdisplay": 2782,
      "Ġpregn": 2783,
      "Ġinfluence": 2784,
      "abil": 2785,
      "outh": 2786,
      "Ġwide": 2787,
      "Ġdisclosed": 2788,
      "icity": 2789,
      "Ã¡": 2790,
      "Ġthird": 2791,
      "Ġhorm": 2792,
      "osom": 2793,
      "Ġuntil": 2794,
      "roid": 2795,
      "Ġfeatures": 2796,
      "Ġconstant": 2797,
      "Ġtested": 2798,
      "Ġrespect": 2799,
      "orption": 2800,
      "ĠPl": 2801,
      "omas": 2802,
      "bo": 2803,
      "Ġevaluation": 2804,
      "Ġdifficult": 2805,
      "erve": 2806,
      "swer": 2807,
      "odes": 2808,
      "Ġcover": 2809,
      "Ġoxygen": 2810,
      "osing": 2811,
      "....": 2812,
      "Ġmit": 2813,
      "acy": 2814,
      "body": 2815,
      "Ġsoft": 2816,
      "ĠOf": 2817,
      "Ġinclude": 2818,
      "Ġsomething": 2819,
      "most": 2820,
      "iat": 2821,
      "Ġprep": 2822,
      "Ġpolit": 2823,
      "Ġleuk": 2824,
      "Ġabnormal": 2825,
      "oman": 2826,
      "Ġviv": 2827,
      "ps": 2828,
      "atin": 2829,
      "Ġlocated": 2830,
      "ocyte": 2831,
      "Ġprefer": 2832,
      "Ġ60": 2833,
      "Ġprior": 2834,
      "Ġcollect": 2835,
      "Ġdyn": 2836,
      "Ġhistory": 2837,
      "Ġdegrees": 2838,
      "Ġelev": 2839,
      "ili": 2840,
      "Ġmove": 2841,
      "Ġinternal": 2842,
      "Ġbreak": 2843,
      "odium": 2844,
      "Ġeff": 2845,
      "stit": 2846,
      "Ġtox": 2847,
      "Ġsample": 2848,
      "Ġdegree": 2849,
      "Ġconcept": 2850,
      "Ġchem": 2851,
      "uture": 2852,
      "Ġnetwork": 2853,
      "Ġbra": 2854,
      "itation": 2855,
      "bb": 2856,
      "Ġrather": 2857,
      "Ġarticle": 2858,
      "mediate": 2859,
      "Ġide": 2860,
      "Ġelectrical": 2861,
      "ote": 2862,
      "Ġtaken": 2863,
      "Ġevaluated": 2864,
      "Ġobserv": 2865,
      "Ġexample": 2866,
      "Ġrelatively": 2867,
      "side": 2868,
      "Ġcontrolled": 2869,
      "Ġdiss": 2870,
      "IT": 2871,
      "ĠInd": 2872,
      "rotein": 2873,
      "Ġfull": 2874,
      "Ġimplement": 2875,
      "Ġpack": 2876,
      "Ġmac": 2877,
      "Ġneut": 2878,
      "Ġcort": 2879,
      "Ġpurp": 2880,
      "atal": 2881,
      "ites": 2882,
      "Ġproduce": 2883,
      "Ġconnect": 2884,
      "Ġmixt": 2885,
      "ricular": 2886,
      "ĠAm": 2887,
      "LA": 2888,
      "ches": 2889,
      "Ġrandom": 2890,
      "Ġcr": 2891,
      "Ġfu": 2892,
      "Ġterms": 2893,
      "Ġaccept": 2894,
      "Ġmodels": 2895,
      "Ġadjacent": 2896,
      "Ġpolic": 2897,
      "Ġsuggested": 2898,
      "ropri": 2899,
      "Ġsum": 2900,
      "ecific": 2901,
      "Ġbook": 2902,
      "ĠSome": 2903,
      "ateg": 2904,
      "Ġaccess": 2905,
      "pecially": 2906,
      "ostic": 2907,
      "Ġthings": 2908,
      "Ġhighly": 2909,
      "helial": 2910,
      ")-": 2911,
      "att": 2912,
      "nter": 2913,
      "ales": 2914,
      "Ġmel": 2915,
      "ats": 2916,
      "artment": 2917,
      "ĠAmerican": 2918,
      "ires": 2919,
      "Ġinjection": 2920,
      "coh": 2921,
      "Ġflex": 2922,
      "Ġtheory": 2923,
      "Ġability": 2924,
      "ĠChorus": 2925,
      "Ġextending": 2926,
      "ĠBl": 2927,
      "Ġmind": 2928,
      "yst": 2929,
      "Ġweek": 2930,
      "Ġdone": 2931,
      "ns": 2932,
      "ried": 2933,
      "Ġaxis": 2934,
      "Ġchannel": 2935,
      "Ġlink": 2936,
      "ending": 2937,
      "idine": 2938,
      "Ġengine": 2939,
      "Ġhor": 2940,
      "Ġcorrelation": 2941,
      "atter": 2942,
      "Ġstimulation": 2943,
      "orth": 2944,
      "Ġfilter": 2945,
      "Ġtests": 2946,
      "Ġna": 2947,
      "Ġactivities": 2948,
      "Ġneur": 2949,
      "Ġfa": 2950,
      "Ġperipheral": 2951,
      "Ġquality": 2952,
      "Ġexhib": 2953,
      "Ġinhibition": 2954,
      "ien": 2955,
      "ton": 2956,
      "Ġlaw": 2957,
      "erent": 2958,
      "Ġlabor": 2959,
      "Ġexperiments": 2960,
      "orpor": 2961,
      "Ġacross": 2962,
      "Ġ&": 2963,
      "cial": 2964,
      ">>": 2965,
      "Ġsusp": 2966,
      "aped": 2967,
      "Ġcereb": 2968,
      "ING": 2969,
      "Ġlog": 2970,
      "Ġground": 2971,
      "Ġfailure": 2972,
      "Ġdrugs": 2973,
      "go": 2974,
      "OS": 2975,
      "Ġdog": 2976,
      "Ġespecially": 2977,
      "Ġreceiving": 2978,
      "Ġinterp": 2979,
      "CH": 2980,
      "<<": 2981,
      "Ġradiation": 2982,
      "âĢĶ": 2983,
      "ÑĤ": 2984,
      "ETX": 2985,
      "Ġdiet": 2986,
      "Ġliter": 2987,
      "ĠCD": 2988,
      "Ġlate": 2989,
      "Ġcompounds": 2990,
      "Ġapproximately": 2991,
      "Ġcalcium": 2992,
      "ĠThus": 2993,
      "Ġyield": 2994,
      "Ġforms": 2995,
      "Ġmorph": 2996,
      "Ġperson": 2997,
      "fl": 2998,
      "ee": 2999,
      "Ġvivo": 3000,
      "Ġfunctional": 3001,
      "ventional": 3002,
      "asis": 3003,
      "ocard": 3004,
      "Ġart": 3005,
      "Ġtransmission": 3006,
      "Ġcatal": 3007,
      "Ġglucose": 3008,
      "Ġcryst": 3009,
      "iet": 3010,
      ".<<": 3011,
      "Ġwhy": 3012,
      "otherapy": 3013,
      "ĠpH": 3014,
      "Ġincluded": 3015,
      "etermined": 3016,
      "PA": 3017,
      "Ġever": 3018,
      "Ġderived": 3019,
      "Ġlock": 3020,
      "Ġedge": 3021,
      "den": 3022,
      "Ġvi": 3023,
      "Ġstudents": 3024,
      "Ġinsulin": 3025,
      "iological": 3026,
      "che": 3027,
      "rence": 3028,
      "Ġsymptoms": 3029,
      "Ġindicated": 3030,
      "Ġstructures": 3031,
      "Ġblack": 3032,
      "occ": 3033,
      "otox": 3034,
      "Ġnecessary": 3035,
      "ĠIll": 3036,
      "Ġgenerally": 3037,
      "au": 3038,
      "etal": 3039,
      "Ġthick": 3040,
      "Ġreturn": 3041,
      "Ġsaf": 3042,
      "agon": 3043,
      "pping": 3044,
      "Ġincidence": 3045,
      "Ġprost": 3046,
      "Ġdefined": 3047,
      "ressive": 3048,
      "01": 3049,
      "imens": 3050,
      "illed": 3051,
      "Ġpatterns": 3052,
      "Ġfixed": 3053,
      "pers": 3054,
      "Ġvert": 3055,
      "Ġchlor": 3056,
      "ĠNe": 3057,
      "Ġfunctions": 3058,
      "Ġstrains": 3059,
      "Ġhepat": 3060,
      "Ġrepl": 3061,
      "ands": 3062,
      "Ġdischar": 3063,
      "Ġaccording": 3064,
      "Ġsubsequ": 3065,
      "Ch": 3066,
      "amma": 3067,
      "Ġproducts": 3068,
      "ortion": 3069,
      "Ġactivation": 3070,
      "Ġstatist": 3071,
      "ĠYeah": 3072,
      "Ġknowledge": 3073,
      "Ġple": 3074,
      "Ġaden": 3075,
      "40": 3076,
      "Ġdisposed": 3077,
      "aff": 3078,
      "Ġassay": 3079,
      "brid": 3080,
      "Ġrecent": 3081,
      "bers": 3082,
      "ĠUnited": 3083,
      "ern": 3084,
      "Ġmarked": 3085,
      "angu": 3086,
      "ĠPre": 3087,
      "Ġfood": 3088,
      "cut": 3089,
      "Ġtumors": 3090,
      "Ġvers": 3091,
      "Ġremo": 3092,
      "ĠOur": 3093,
      "Ġinfl": 3094,
      "Ġhypot": 3095,
      "Ġthing": 3096,
      "Ġpump": 3097,
      "60": 3098,
      "Ġdiab": 3099,
      "Ġcomparison": 3100,
      "Ġpulmonary": 3101,
      "Ġincreases": 3102,
      "Ġnext": 3103,
      "Ġmaximum": 3104,
      "oplas": 3105,
      "itative": 3106,
      "ĠPer": 3107,
      "empt": 3108,
      "Ġcarcinoma": 3109,
      "Ġvehicle": 3110,
      "Ġpig": 3111,
      "Ġmicroscop": 3112,
      "Ġsensitivity": 3113,
      "Ġauthor": 3114,
      "Ġsurfaces": 3115,
      "Ġregions": 3116,
      "ips": 3117,
      "rine": 3118,
      "Ġfrag": 3119,
      "Ġmort": 3120,
      "the": 3121,
      "LE": 3122,
      "come": 3123,
      "Ġmaking": 3124,
      "ĠFurther": 3125,
      "Ġhydrogen": 3126,
      "Ġsurvival": 3127,
      "reng": 3128,
      "icular": 3129,
      "Ġpredetermined": 3130,
      "Ġsulf": 3131,
      "Ġge": 3132,
      "ternal": 3133,
      "Ġpeak": 3134,
      "Ġextra": 3135,
      "lob": 3136,
      "Ġphysical": 3137,
      "ney": 3138,
      "ĠAN": 3139,
      "dom": 3140,
      "Ġcool": 3141,
      "Ġagents": 3142,
      "Ġvia": 3143,
      "Ġdefic": 3144,
      "Ġcalled": 3145,
      "ĠCO": 3146,
      "Ġcomm": 3147,
      "wardly": 3148,
      "athy": 3149,
      "rh": 3150,
      "Ġsuit": 3151,
      "Ġexperience": 3152,
      "Ġindex": 3153,
      "Ġreference": 3154,
      "reated": 3155,
      "Ġbecome": 3156,
      "Ġmor": 3157,
      "Ġalgorithm": 3158,
      "Ġprocesses": 3159,
      "Ġalcoh": 3160,
      "imensional": 3161,
      "Ġwhose": 3162,
      "Ġdouble": 3163,
      "Ġbelieve": 3164,
      "Ġmom": 3165,
      "Ġalmost": 3166,
      "type": 3167,
      "iver": 3168,
      "Ġexerc": 3169,
      "ogene": 3170,
      "Ġheter": 3171,
      "Ġmachine": 3172,
      "Ġconventional": 3173,
      "Ġagent": 3174,
      "Ġalthough": 3175,
      "ĠQu": 3176,
      "Ġequal": 3177,
      "Ġfriend": 3178,
      "Ġfed": 3179,
      "Ġ22": 3180,
      "UN": 3181,
      "ha": 3182,
      "Ġrepe": 3183,
      "Ġadditional": 3184,
      "Ġoxid": 3185,
      "Ġreceptors": 3186,
      "Ġyeah": 3187,
      "ml": 3188,
      "Ġkid": 3189,
      "Ġsurgical": 3190,
      "Ġable": 3191,
      "Ġbelow": 3192,
      "Ġparent": 3193,
      "rist": 3194,
      "Ġextract": 3195,
      "Ġbenef": 3196,
      "Ġreason": 3197,
      "ateral": 3198,
      "dle": 3199,
      "Ġresulting": 3200,
      "Ġsecondary": 3201,
      "Ġname": 3202,
      "Ġprinc": 3203,
      "iversity": 3204,
      "Ġexch": 3205,
      "Ġoil": 3206,
      "Ġexamination": 3207,
      "ique": 3208,
      "aph": 3209,
      "Ġfuture": 3210,
      "oster": 3211,
      "Ġcombined": 3212,
      "Ġdesigned": 3213,
      "Ġconstit": 3214,
      "sis": 3215,
      "Ġappropri": 3216,
      "%.": 3217,
      "pe": 3218,
      "Ġmechanisms": 3219,
      "iratory": 3220,
      "Ġpen": 3221,
      "Ġepid": 3222,
      "17": 3223,
      "ĠEu": 3224,
      "ĉĉ": 3225,
      "urrent": 3226,
      "Ġartery": 3227,
      "Ġslow": 3228,
      "Ġcharacterized": 3229,
      "Ġcardiac": 3230,
      "lo": 3231,
      "Ġdelay": 3232,
      "Ġthereby": 3233,
      "arily": 3234,
      "Ġremov": 3235,
      "Ġvar": 3236,
      "Ġmolec": 3237,
      "Ġstatus": 3238,
      "AD": 3239,
      "Cl": 3240,
      "ocl": 3241,
      "Ġyoure": 3242,
      "iles": 3243,
      "Ġdiamet": 3244,
      "Ġsodium": 3245,
      "Ġtrial": 3246,
      "Ġstreng": 3247,
      "arc": 3248,
      "Ġund": 3249,
      "Ġrelation": 3250,
      "Ġcav": 3251,
      "Ġspring": 3252,
      "Ġincorpor": 3253,
      "Ġdoor": 3254,
      "Ġcompet": 3255,
      "Ġradio": 3256,
      "Ġalkyl": 3257,
      "sing": 3258,
      "Ġstrateg": 3259,
      "rape": 3260,
      "iveness": 3261,
      "ogenic": 3262,
      "Ġcorrect": 3263,
      "inct": 3264,
      "specific": 3265,
      "Ġcam": 3266,
      "Ġhouse": 3267,
      "Ġdirectly": 3268,
      "Ġmeasurement": 3269,
      "Ġgenes": 3270,
      "ĠVerse": 3271,
      "ging": 3272,
      "based": 3273,
      "ras": 3274,
      "ĠEach": 3275,
      "Ġthy": 3276,
      "ik": 3277,
      "izes": 3278,
      "Ġfemale": 3279,
      "Ġpiv": 3280,
      "Ġinteraction": 3281,
      "onary": 3282,
      "Ġclosed": 3283,
      "ochemical": 3284,
      "Ġsupply": 3285,
      "Ġmonitor": 3286,
      "iot": 3287,
      "Ġinside": 3288,
      "Ġsheet": 3289,
      "fold": 3290,
      "Ġinhibited": 3291,
      "osa": 3292,
      "ĠJust": 3293,
      "Ġopposite": 3294,
      "ultaneous": 3295,
      "Ġestablished": 3296,
      "Ġwhite": 3297,
      "ĠCan": 3298,
      "Ġheav": 3299,
      "Ġcame": 3300,
      "ergic": 3301,
      "emic": 3302,
      "ctor": 3303,
      "agen": 3304,
      "RO": 3305,
      "zz": 3306,
      "Ġbed": 3307,
      "Ġmaterials": 3308,
      "ipl": 3309,
      "uble": 3310,
      "eed": 3311,
      "inity": 3312,
      "Ġthin": 3313,
      "Ġvessel": 3314,
      "Ġapparent": 3315,
      "IL": 3316,
      "Ġnatural": 3317,
      "overy": 3318,
      "entially": 3319,
      "ĠmRNA": 3320,
      "Ġvisual": 3321,
      "Ġeducation": 3322,
      "Ġsubstit": 3323,
      "Ġtransition": 3324,
      "Ġparts": 3325,
      "aster": 3326,
      "atives": 3327,
      "cence": 3328,
      "rial": 3329,
      "Ġends": 3330,
      "Ġbig": 3331,
      "eared": 3332,
      "active": 3333,
      "rix": 3334,
      "iform": 3335,
      "Ġmov": 3336,
      "Ġtele": 3337,
      "Ġparticles": 3338,
      "ĠNa": 3339,
      "Ġappears": 3340,
      "ĠBoth": 3341,
      "Ġlist": 3342,
      "Ġenough": 3343,
      "Ġbur": 3344,
      "Ġlikely": 3345,
      "Ġstorage": 3346,
      "ĠSy": 3347,
      "Ġsound": 3348,
      "Ġjoint": 3349,
      "af": 3350,
      "Ġsuggests": 3351,
      "MP": 3352,
      "Ġresulted": 3353,
      "Ġbottom": 3354,
      "Ġcolon": 3355,
      "Ġportions": 3356,
      "Ġaffected": 3357,
      "Ġforming": 3358,
      "ĠInt": 3359,
      "AS": 3360,
      "Ġoh": 3361,
      "Ġsmo": 3362,
      "Ġbond": 3363,
      "Ġunits": 3364,
      "Ġwalk": 3365,
      "Ġmoney": 3366,
      "Ġthrom": 3367,
      "aves": 3368,
      "ĠOr": 3369,
      "era": 3370,
      "Ġroom": 3371,
      "Ġpivot": 3372,
      "pr": 3373,
      "Ġrear": 3374,
      "hyd": 3375,
      "Ġacids": 3376,
      "ĠFrom": 3377,
      "umb": 3378,
      "Ġtranscri": 3379,
      "Ġmixture": 3380,
      "Ġmaintain": 3381,
      "Ġmanner": 3382,
      "Ġpoor": 3383,
      "ember": 3384,
      "Ġpromot": 3385,
      "Ġanalog": 3386,
      "âĢħ": 3387,
      "Ġtherefore": 3388,
      "ults": 3389,
      "US": 3390,
      "Ġorigin": 3391,
      "Ġworking": 3392,
      "Ġproviding": 3393,
      "Ġachieved": 3394,
      "uth": 3395,
      "Ġconsum": 3396,
      "Ġ21": 3397,
      "clusion": 3398,
      "Ġsuccessful": 3399,
      "ulatory": 3400,
      "ĠIL": 3401,
      "Ġyet": 3402,
      "Ġadapted": 3403,
      "ĠRep": 3404,
      "Ġprobably": 3405,
      "Ġstation": 3406,
      "Ġtransl": 3407,
      "iece": 3408,
      "Ġcenter": 3409,
      "Ġsolid": 3410,
      "ows": 3411,
      "rope": 3412,
      "Ġmatter": 3413,
      "Ġmeet": 3414,
      "isc": 3415,
      "Ġmouse": 3416,
      "ĠStates": 3417,
      "Ġnature": 3418,
      "Qu": 3419,
      "Ġattempt": 3420,
      "Ġcountry": 3421,
      "Ġlive": 3422,
      "Ġdon": 3423,
      "Ġnorm": 3424,
      "Ġprepared": 3425,
      "Ġball": 3426,
      "ION": 3427,
      "Ġalter": 3428,
      "rapeut": 3429,
      "Ġrespond": 3430,
      "Ġaccum": 3431,
      "ceed": 3432,
      "related": 3433,
      "22": 3434,
      "Ġdomain": 3435,
      "Ġexpressed": 3436,
      "ĠPat": 3437,
      "ĠRec": 3438,
      "Ġrabb": 3439,
      "Ġstates": 3440,
      "Ġoperating": 3441,
      "Ġsections": 3442,
      "asing": 3443,
      "uals": 3444,
      "Ġeight": 3445,
      "Ġalcohol": 3446,
      "Ġpharm": 3447,
      "Ġtraining": 3448,
      "Ġfiber": 3449,
      "Ġvascular": 3450,
      "Ġcolor": 3451,
      "Ġkey": 3452,
      "Ġlens": 3453,
      "ike": 3454,
      "Ġlongitud": 3455,
      "Ġabsence": 3456,
      "ext": 3457,
      "Ġmalign": 3458,
      "ãĤ": 3459,
      "Ġarg": 3460,
      "bs": 3461,
      "Ġdetail": 3462,
      "eria": 3463,
      "Ġchemical": 3464,
      "Ġsufficient": 3465,
      "ii": 3466,
      "Ġothers": 3467,
      "Ġpractice": 3468,
      "back": 3469,
      "Ġden": 3470,
      "Ġfund": 3471,
      "Ġpay": 3472,
      "Ġmode": 3473,
      "Ġcycle": 3474,
      "Ġconstruct": 3475,
      "AP": 3476,
      "raz": 3477,
      "RE": 3478,
      "lig": 3479,
      "ĠCont": 3480,
      "Ġadm": 3481,
      "Ġliterature": 3482,
      "Ġnovel": 3483,
      "Ġanalys": 3484,
      "Ġlimited": 3485,
      "Ġoral": 3486,
      "Ġanalyzed": 3487,
      "Ġcontainer": 3488,
      "Ġwat": 3489,
      "Ġacet": 3490,
      "Ġprograms": 3491,
      "Ġwoman": 3492,
      "Ġdeli": 3493,
      "aching": 3494,
      "Ġapplications": 3495,
      "Ġov": 3496,
      "gement": 3497,
      "Ġimages": 3498,
      "Ġonce": 3499,
      "Ġbir": 3500,
      "Ġflo": 3501,
      "Ġcomb": 3502,
      "raft": 3503,
      "ĠSch": 3504,
      "Ġvel": 3505,
      "Ġtrue": 3506,
      "equ": 3507,
      "Ġsensitive": 3508,
      "Ġperm": 3509,
      "ĠIN": 3510,
      "Ġseems": 3511,
      "Ġdoses": 3512,
      "24": 3513,
      "Ġgovernment": 3514,
      "Ġmortality": 3515,
      "Ġdoc": 3516,
      "Ġtend": 3517,
      "Ġsecretion": 3518,
      "Ġbuild": 3519,
      "ĠDuring": 3520,
      "oding": 3521,
      "went": 3522,
      "Ġpoints": 3523,
      "Ġshows": 3524,
      "Ġdys": 3525,
      "Ġimprove": 3526,
      "Ġdiseases": 3527,
      "ĠRNA": 3528,
      "Ġguide": 3529,
      "Ġcarry": 3530,
      "uff": 3531,
      "Ġlack": 3532,
      "Ġcapacity": 3533,
      "Ġadvant": 3534,
      "Ġland": 3535,
      "ese": 3536,
      "Ġagre": 3537,
      "Ġsimultaneous": 3538,
      "Ð¸": 3539,
      "Ġjob": 3540,
      "ley": 3541,
      "deg": 3542,
      "Ġ23": 3543,
      "Ġbreast": 3544,
      "Ġmuc": 3545,
      "Ġmotion": 3546,
      "Ġhealthy": 3547,
      "Ġlangu": 3548,
      "Ġnerve": 3549,
      "rum": 3550,
      "Ġfocus": 3551,
      "oz": 3552,
      "oglob": 3553,
      "ising": 3554,
      "Ġrang": 3555,
      "ĠBec": 3556,
      "Ġpulse": 3557,
      "Ġnuclear": 3558,
      "ĠApp": 3559,
      "ĠWill": 3560,
      "TS": 3561,
      "Ġspl": 3562,
      "Ġattached": 3563,
      "Ġarranged": 3564,
      "ogenesis": 3565,
      "Ġappropriate": 3566,
      "Ġslight": 3567,
      "aches": 3568,
      "ĠMin": 3569,
      "Ġmyocard": 3570,
      "Ġimpact": 3571,
      "Ġagg": 3572,
      "As": 3573,
      "Ġcore": 3574,
      "Ġtissues": 3575,
      "ĠEn": 3576,
      "Ġdamage": 3577,
      "Ġexercise": 3578,
      "lectric": 3579,
      "Ġreson": 3580,
      "Ġactu": 3581,
      "Ġelimin": 3582,
      "Ġcoronary": 3583,
      "Ġcommunication": 3584,
      "Ġsequences": 3585,
      "Ġmicrogram": 3586,
      "icial": 3587,
      "Ġnor": 3588,
      "Ġmother": 3589,
      "Ġobtain": 3590,
      "Ġexcept": 3591,
      "xy": 3592,
      "Ġprolif": 3593,
      "Ġbit": 3594,
      "Ġventricular": 3595,
      "Ġsoci": 3596,
      "Ġpolitical": 3597,
      "Ġten": 3598,
      "Ġtesting": 3599,
      "ady": 3600,
      "trans": 3601,
      "ĠTe": 3602,
      "Ġpurpose": 3603,
      "Ġprint": 3604,
      "carb": 3605,
      "lets": 3606,
      "Ġnut": 3607,
      "Ġdigital": 3608,
      "iatric": 3609,
      "onst": 3610,
      "Ġderiv": 3611,
      "Ġglass": 3612,
      "Ġgenerated": 3613,
      "Ġcorrelated": 3614,
      "mod": 3615,
      "Ġreli": 3616,
      "Ġgonna": 3617,
      "Ġextent": 3618,
      "oxide": 3619,
      "Ġglyc": 3620,
      "Ġprocedures": 3621,
      "Ġstre": 3622,
      "Ġ28": 3623,
      "Ġreduce": 3624,
      "ĠMed": 3625,
      "ĠMore": 3626,
      "Ġduration": 3627,
      "Ġ).": 3628,
      "amide": 3629,
      "phal": 3630,
      "Ġorient": 3631,
      "Ġcoupled": 3632,
      "ying": 3633,
      "orders": 3634,
      "olester": 3635,
      "Ġtom": 3636,
      "Ġmi": 3637,
      "Ġscan": 3638,
      "Ġdiameter": 3639,
      "acement": 3640,
      "rapeutic": 3641,
      "Ġpip": 3642,
      "Ġswe": 3643,
      "čĠĠ": 3644,
      "ops": 3645,
      "ming": 3646,
      "encies": 3647,
      "kn": 3648,
      "ometric": 3649,
      "Ġexposed": 3650,
      "Ġvas": 3651,
      "estinal": 3652,
      "vant": 3653,
      "Ġexternal": 3654,
      "Ġhybrid": 3655,
      "Ġhormone": 3656,
      "Ġinjury": 3657,
      "Ġsatis": 3658,
      "ero": 3659,
      "Ġconfig": 3660,
      "Ġhost": 3661,
      "ibr": 3662,
      "Ġcellular": 3663,
      "Ġdistance": 3664,
      "Ġnothing": 3665,
      "Ġbasic": 3666,
      "Ġcommunity": 3667,
      "Ġmes": 3668,
      "ÃŃ": 3669,
      "Ġimportance": 3670,
      "Ġmatrix": 3671,
      "ĠLet": 3672,
      "Ġparticip": 3673,
      "âĪ": 3674,
      "Ġpassage": 3675,
      "Ġpy": 3676,
      "ĠGod": 3677,
      "Ġentire": 3678,
      "Ã³": 3679,
      "Ġspaced": 3680,
      "Ġmillion": 3681,
      "HO": 3682,
      "Ġmakes": 3683,
      "ĠThen": 3684,
      "Ġcarrier": 3685,
      "Ġtold": 3686,
      "Effect": 3687,
      "ided": 3688,
      "ococc": 3689,
      "Ġ90": 3690,
      "AC": 3691,
      "ĠUsing": 3692,
      "Ñģ": 3693,
      "ĠStud": 3694,
      "Ġsin": 3695,
      "Ġextre": 3696,
      "ĠSec": 3697,
      "Ġvariable": 3698,
      "Ġcauses": 3699,
      "idity": 3700,
      "uls": 3701,
      "Ã£": 3702,
      "Ġlonger": 3703,
      "ptake": 3704,
      "time": 3705,
      "Ġstructural": 3706,
      "Ġcann": 3707,
      "Ġsensor": 3708,
      "Ġimm": 3709,
      "illing": 3710,
      "bet": 3711,
      "Ġpanc": 3712,
      "degree": 3713,
      "Ġdevices": 3714,
      "het": 3715,
      "Ġservices": 3716,
      "Ġshape": 3717,
      "Ġtoday": 3718,
      "Ġbal": 3719,
      "riction": 3720,
      "Ġimaging": 3721,
      "Ġsn": 3722,
      "Ġseven": 3723,
      "Ġhear": 3724,
      "Ġelectric": 3725,
      "ĠDont": 3726,
      "eryth": 3727,
      "Ġson": 3728,
      "Ġbegin": 3729,
      "Ġtook": 3730,
      "erior": 3731,
      "terior": 3732,
      "ination": 3733,
      "anol": 3734,
      "Ġhot": 3735,
      "Ġimprovement": 3736,
      "Ġinterpret": 3737,
      "Ġinfants": 3738,
      "Ġarch": 3739,
      "Ġlarger": 3740,
      "ĠFriend": 3741,
      "oun": 3742,
      "Ġveloc": 3743,
      "ĠSim": 3744,
      "Ġwid": 3745,
      "Ġcontains": 3746,
      "more": 3747,
      "Ġimplic": 3748,
      "Ġhoriz": 3749,
      "Ġpret": 3750,
      "Ġconc": 3751,
      "Ġidentify": 3752,
      "ufact": 3753,
      "Ġsqu": 3754,
      "neum": 3755,
      "Ġacqu": 3756,
      "Ġvariety": 3757,
      "Ġassum": 3758,
      "ards": 3759,
      "Ġallows": 3760,
      "Ġtreat": 3761,
      "Ġfuel": 3762,
      "Ġsuitable": 3763,
      "Ġrepro": 3764,
      "Ġrotation": 3765,
      "Ġintermediate": 3766,
      "Ġcalculated": 3767,
      "Ġformula": 3768,
      "Ġstimul": 3769,
      "Ġml": 3770,
      "Ġbran": 3771,
      "Ġplane": 3772,
      "Ġcapable": 3773,
      "ament": 3774,
      "ester": 3775,
      "Ġpolicy": 3776,
      "MR": 3777,
      "Ġ35": 3778,
      "Ġdemonstrate": 3779,
      "Ġcontained": 3780,
      "Ġoutside": 3781,
      "Ġprofess": 3782,
      "Ġast": 3783,
      "Ġplant": 3784,
      "Ġterminal": 3785,
      "90": 3786,
      "Ġsupported": 3787,
      "ills": 3788,
      "Ġdiagnostic": 3789,
      "CO": 3790,
      "ĠIve": 3791,
      "asts": 3792,
      "100": 3793,
      "Ġarterial": 3794,
      "Ġtransplant": 3795,
      "otype": 3796,
      "irus": 3797,
      "Ġvertical": 3798,
      "Ġdream": 3799,
      "Ġbusiness": 3800,
      "version": 3801,
      "Ð¾Ð": 3802,
      "Ġven": 3803,
      "Ġeffort": 3804,
      "Ġmetast": 3805,
      "Ġaddress": 3806,
      "ĠUniversity": 3807,
      "idase": 3808,
      "Ġeconomic": 3809,
      "Ġdecl": 3810,
      "ĠCol": 3811,
      "Ġheld": 3812,
      "ortun": 3813,
      "Ġdesired": 3814,
      "Ġplaced": 3815,
      "upp": 3816,
      "ready": 3817,
      "Ġlimit": 3818,
      "Ġmeasures": 3819,
      "ather": 3820,
      "Ġadded": 3821,
      "PS": 3822,
      "Ġweak": 3823,
      "Ġbroad": 3824,
      "Ġoverall": 3825,
      "right": 3826,
      "Ġservice": 3827,
      "Ġ80": 3828,
      "ĠCo": 3829,
      "phosph": 3830,
      "Ġmold": 3831,
      "ĠSince": 3832,
      "hood": 3833,
      "ĠEurope": 3834,
      "rocy": 3835,
      "Ġstable": 3836,
      "Ġschem": 3837,
      "Ġsleep": 3838,
      "ĠBecause": 3839,
      "ĠDes": 3840,
      "ogenous": 3841,
      "des": 3842,
      "ishing": 3843,
      "Ġdependent": 3844,
      "Ġinstr": 3845,
      "tes": 3846,
      "ĠAnswer": 3847,
      "king": 3848,
      "ronch": 3849,
      "Ġcritical": 3850,
      "Ġsure": 3851,
      "Ġfav": 3852,
      "dimensional": 3853,
      "atically": 3854,
      "urg": 3855,
      "Ġdeep": 3856,
      "ios": 3857,
      "Ġconsistent": 3858,
      "Ġhyd": 3859,
      "Ġangle": 3860,
      "Ġpor": 3861,
      "Ġmeasuring": 3862,
      "ortic": 3863,
      "venous": 3864,
      "inally": 3865,
      "Ġrecovery": 3866,
      "Ġremoved": 3867,
      "Ġissues": 3868,
      "Ġefficient": 3869,
      "Ġenhanced": 3870,
      "ĠTR": 3871,
      "Ġdest": 3872,
      "Ġvs": 3873,
      "Ġ26": 3874,
      "activ": 3875,
      "Ġlot": 3876,
      "Ġerror": 3877,
      "Ġnoise": 3878,
      "CR": 3879,
      "Ġavoid": 3880,
      "Ġmetabolism": 3881,
      "23": 3882,
      "ĠMan": 3883,
      "Ġton": 3884,
      "Question": 3885,
      "Ġrecomm": 3886,
      "onucle": 3887,
      "Ã£o": 3888,
      "oret": 3889,
      "Th": 3890,
      "ĠMa": 3891,
      "Ġadhes": 3892,
      "ĠHIV": 3893,
      "inant": 3894,
      "Ġindividuals": 3895,
      "eled": 3896,
      "__": 3897,
      "clus": 3898,
      "abric": 3899,
      "rosis": 3900,
      "Ġgel": 3901,
      "Ġcharge": 3902,
      "Ġcoli": 3903,
      "ster": 3904,
      "Ġpartial": 3905,
      "ĠPres": 3906,
      "rec": 3907,
      "etics": 3908,
      "Ġeye": 3909,
      "Ġstrength": 3910,
      "80": 3911,
      "Ġdaily": 3912,
      "Ġdivid": 3913,
      "Ġattention": 3914,
      "Ġstay": 3915,
      "Ġgave": 3916,
      "Ġseparate": 3917,
      "anna": 3918,
      "oclonal": 3919,
      "Ġwent": 3920,
      "ĠCT": 3921,
      "otrop": 3922,
      "EM": 3923,
      "Ġdistinct": 3924,
      "ÑĢ": 3925,
      "inter": 3926,
      "Ġeryth": 3927,
      "ĠPr": 3928,
      "Ġster": 3929,
      "Ġneeded": 3930,
      "Ġneeds": 3931,
      "Ġmanufact": 3932,
      "Ġassessment": 3933,
      "Ġrod": 3934,
      "Ġassociation": 3935,
      "Ġcomplications": 3936,
      "Ġexpected": 3937,
      "Ġalready": 3938,
      "Ġmess": 3939,
      "Ġappeared": 3940,
      "Ġvoice": 3941,
      "Ġuptake": 3942,
      "Ġgain": 3943,
      "Ġnitro": 3944,
      "ĠCome": 3945,
      "ĠCal": 3946,
      "cal": 3947,
      "DNA": 3948,
      "Ġsaw": 3949,
      "Ġaccur": 3950,
      "Ġdifferential": 3951,
      "ĠWhy": 3952,
      "Ġtro": 3953,
      "Ġcultures": 3954,
      "Ġmoment": 3955,
      "pite": 3956,
      "Ġadministered": 3957,
      "Ġphysic": 3958,
      "Ġthermal": 3959,
      "ingu": 3960,
      "ded": 3961,
      "iding": 3962,
      "SA": 3963,
      "ontal": 3964,
      "Ġlatter": 3965,
      "ylation": 3966,
      "Ġlost": 3967,
      "chol": 3968,
      "ĠEng": 3969,
      "ses": 3970,
      "Ġinduction": 3971,
      "Ġsegment": 3972,
      "Ġcylinder": 3973,
      "ĠAf": 3974,
      "Ġmulti": 3975,
      "Ġrecorded": 3976,
      "kin": 3977,
      "Ġaccom": 3978,
      "tered": 3979,
      "Ġpregnancy": 3980,
      "Ġmoving": 3981,
      "Ġitself": 3982,
      "Ġrare": 3983,
      "ductor": 3984,
      "001": 3985,
      "Ġzone": 3986,
      "Ã¼": 3987,
      "Ġtrack": 3988,
      "ryl": 3989,
      "Ġjo": 3990,
      "Ġenter": 3991,
      "ID": 3992,
      "Ġiron": 3993,
      "Ġpi": 3994,
      "ĠTHE": 3995,
      "olesterol": 3996,
      "Ġterm": 3997,
      "Ġdischarge": 3998,
      "Ġfine": 3999,
      "Ġgraft": 4000,
      "Ġcoe": 4001,
      "patic": 4002,
      "Ġdisorders": 4003,
      "Ġnumer": 4004,
      "Ġelectrode": 4005,
      "wise": 4006,
      "Ġmarket": 4007,
      "Ġemph": 4008,
      "celer": 4009,
      "ĠYes": 4010,
      "amb": 4011,
      "Ġfire": 4012,
      "Ġtradition": 4013,
      "Ġthromb": 4014,
      "ĠJoh": 4015,
      "Ġrespiratory": 4016,
      "Ġhypertension": 4017,
      "Ġstri": 4018,
      "apan": 4019,
      "ĠAc": 4020,
      "Ġsubsequent": 4021,
      "Ã¶": 4022,
      "Ġobst": 4023,
      "Ġrecently": 4024,
      "Ġelevated": 4025,
      "Ġlymphocytes": 4026,
      "Ġchromat": 4027,
      "head": 4028,
      "Ġpict": 4029,
      "Ġtable": 4030,
      "ĠThree": 4031,
      "irect": 4032,
      "ĠFe": 4033,
      "Ġ70": 4034,
      "Ġtu": 4035,
      "Ġembry": 4036,
      "ada": 4037,
      "ĠIII": 4038,
      "ief": 4039,
      "ĠMay": 4040,
      "renal": 4041,
      "Ġrevers": 4042,
      "off": 4043,
      "Ġimmune": 4044,
      "oscop": 4045,
      "Ġcircum": 4046,
      "Ġflexible": 4047,
      "Ġrise": 4048,
      "Ġ27": 4049,
      "Ġtax": 4050,
      "ĠAss": 4051,
      "ĠDep": 4052,
      "Ġusually": 4053,
      "Ġinfections": 4054,
      "Ġessential": 4055,
      "Ġsun": 4056,
      "nel": 4057,
      "Ġchall": 4058,
      "Ġshall": 4059,
      "Ġsou": 4060,
      "Ġcoupling": 4061,
      "ologically": 4062,
      "Ġdescribe": 4063,
      "Ġabsorption": 4064,
      "Ġaud": 4065,
      "ories": 4066,
      "opath": 4067,
      "Ġdoing": 4068,
      "EC": 4069,
      "Ġassessed": 4070,
      "Ġvary": 4071,
      "ĠHis": 4072,
      "Ġrib": 4073,
      "Ġfibers": 4074,
      "reshold": 4075,
      "formation": 4076,
      "Ġantagon": 4077,
      "lier": 4078,
      "Ġliving": 4079,
      "Ġinsert": 4080,
      "Ġpanel": 4081,
      "Ġsurvey": 4082,
      "Ġnumbers": 4083,
      "Ġwheel": 4084,
      "otyp": 4085,
      "eter": 4086,
      "wh": 4087,
      "Ġplastic": 4088,
      "Ġmedia": 4089,
      "Ġpurified": 4090,
      "Ġtempor": 4091,
      "Ġcounter": 4092,
      "He": 4093,
      "Ġdeb": 4094,
      "Ġcold": 4095,
      "Ġlocation": 4096,
      "free": 4097,
      "Ġefficiency": 4098,
      "Ġwords": 4099,
      "Ġconsisting": 4100,
      "iate": 4101,
      "Ġmicrograms": 4102,
      "Ġgeneration": 4103,
      "ground": 4104,
      "Ġintensity": 4105,
      "Ġrev": 4106,
      "Ġquest": 4107,
      "Ġrock": 4108,
      "unt": 4109,
      "Ġsurround": 4110,
      "oprotein": 4111,
      "Ġpist": 4112,
      "ĠAnt": 4113,
      "Ġminutes": 4114,
      "Ġpositioned": 4115,
      "Ġmodified": 4116,
      "Ġdark": 4117,
      "Ġdefin": 4118,
      "ensitive": 4119,
      "Ġbehavi": 4120,
      "Ġsupporting": 4121,
      "Ġirradi": 4122,
      "Ġcompletely": 4123,
      "Ġpolar": 4124,
      "Ġbirth": 4125,
      "Ġendot": 4126,
      "hyth": 4127,
      "Ġfibro": 4128,
      "Ġdeveloping": 4129,
      "ontaneous": 4130,
      "Ġlanguage": 4131,
      "osome": 4132,
      "ĠResults": 4133,
      "SH": 4134,
      "Ġ250": 4135,
      "ĠOF": 4136,
      "urity": 4137,
      "Ġcolum": 4138,
      "Ġfig": 4139,
      "Ġcerebral": 4140,
      "ĠLa": 4141,
      "Ġtechnology": 4142,
      "Ġfabric": 4143,
      "Ġce": 4144,
      "Ġfinal": 4145,
      "rog": 4146,
      "Ġfluores": 4147,
      "Ġmil": 4148,
      "ridge": 4149,
      "Ġpreparation": 4150,
      ".)": 4151,
      "stim": 4152,
      "Ġelong": 4153,
      "Ġalternative": 4154,
      "Ġindicating": 4155,
      "ilities": 4156,
      "Ġinfusion": 4157,
      "Ġdry": 4158,
      "Ġsent": 4159,
      "Ġproducing": 4160,
      "Ġconj": 4161,
      "Ġlact": 4162,
      "aim": 4163,
      "Ġconfirmed": 4164,
      "Ġexchange": 4165,
      "Ġwalls": 4166,
      "igned": 4167,
      "olip": 4168,
      "selves": 4169,
      "Ġonto": 4170,
      "stract": 4171,
      "Ġsuff": 4172,
      "rier": 4173,
      "Ġevent": 4174,
      "Ġ45": 4175,
      "Ġvariables": 4176,
      "Ġbad": 4177,
      "St": 4178,
      "Ġjud": 4179,
      "Ġdecision": 4180,
      "aries": 4181,
      "Ġvide": 4182,
      "Ġmanif": 4183,
      "unk": 4184,
      "Ġinvestigation": 4185,
      "CD": 4186,
      "ometry": 4187,
      "Ġincub": 4188,
      "ai": 4189,
      "Ġsuggesting": 4190,
      "ophil": 4191,
      "Ġlig": 4192,
      "Ġclean": 4193,
      "rogen": 4194,
      "oral": 4195,
      "Ġconsequ": 4196,
      "ocks": 4197,
      "Ġvariation": 4198,
      "pective": 4199,
      "Ä±": 4200,
      "Ġradical": 4201,
      "oon": 4202,
      "ectomy": 4203,
      "Ġdogs": 4204,
      "Ġtherapeutic": 4205,
      "ĠGen": 4206,
      "Ġword": 4207,
      "Ġpositions": 4208,
      "Ġconnection": 4209,
      "stry": 4210,
      "Ġlaboratory": 4211,
      "mia": 4212,
      "ĠHey": 4213,
      "ulator": 4214,
      "Ġcavity": 4215,
      "CL": 4216,
      "ĠMar": 4217,
      "Ð½": 4218,
      "Ġconducted": 4219,
      "Ġevents": 4220,
      "Ġmur": 4221,
      "elt": 4222,
      "illary": 4223,
      "duc": 4224,
      "Ġfamil": 4225,
      "Ġtri": 4226,
      "Ġpin": 4227,
      "anger": 4228,
      "ĠEvery": 4229,
      "ze": 4230,
      "ĠJapan": 4231,
      "Ġoccurs": 4232,
      "čĠĠĠĠ": 4233,
      "70": 4234,
      "gu": 4235,
      "Ġlayers": 4236,
      "for": 4237,
      "omes": 4238,
      "35": 4239,
      "ĠInc": 4240,
      "Ġmonitoring": 4241,
      "hest": 4242,
      "Ġdead": 4243,
      "Ġdil": 4244,
      "ames": 4245,
      "Ġgamma": 4246,
      "mat": 4247,
      "Ġoxide": 4248,
      "Ġrecording": 4249,
      "iology": 4250,
      "Ġje": 4251,
      "Ġmyocardial": 4252,
      "Ġmig": 4253,
      "Ġrect": 4254,
      "Ġbring": 4255,
      "Ġarray": 4256,
      "Ġthroughout": 4257,
      "Ġmamm": 4258,
      "Ġaim": 4259,
      "Ġmonoclonal": 4260,
      "Ġlongitudinal": 4261,
      "ĠGe": 4262,
      "ĠCent": 4263,
      "26": 4264,
      "Ġcoating": 4265,
      "Ġestimated": 4266,
      "×Ļ": 4267,
      "rs": 4268,
      "Ġenhance": 4269,
      "Ġnational": 4270,
      "Ġintroduced": 4271,
      "Ġgenetic": 4272,
      "Ġfetal": 4273,
      "erate": 4274,
      "overed": 4275,
      "Ġlateral": 4276,
      "Ġvit": 4277,
      "Ġpeptide": 4278,
      "Ġforward": 4279,
      "Ġvelocity": 4280,
      "Ġdocument": 4281,
      "pass": 4282,
      "Ġtoler": 4283,
      "Ġnurs": 4284,
      "Ġmiddle": 4285,
      "Ġmiss": 4286,
      "Ġpneum": 4287,
      "Ġwanna": 4288,
      "ĠBrit": 4289,
      "Ġregulation": 4290,
      "Ġpow": 4291,
      "Ġconcluded": 4292,
      "Ġoccup": 4293,
      "Ġreactions": 4294,
      "Ġstability": 4295,
      "Ġfer": 4296,
      "Ġintravenous": 4297,
      "Ġserious": 4298,
      "ears": 4299,
      "Ġunderstanding": 4300,
      "Ġmob": 4301,
      "Ġble": 4302,
      "Ġtext": 4303,
      "acing": 4304,
      "Ġembod": 4305,
      "Ġbul": 4306,
      "Ġlearning": 4307,
      "orks": 4308,
      "28": 4309,
      "Ġnm": 4310,
      "iring": 4311,
      "ocal": 4312,
      "Ġsolutions": 4313,
      "Ġhands": 4314,
      "ĠUnd": 4315,
      "stic": 4316,
      "Ġcathe": 4317,
      "elling": 4318,
      "ĠCause": 4319,
      "Ġinflamm": 4320,
      "Ġsense": 4321,
      "Ġtaking": 4322,
      "ptides": 4323,
      "Ġremoval": 4324,
      "Ġarms": 4325,
      "Ġsources": 4326,
      "Ġanimal": 4327,
      "21": 4328,
      "Ġsmooth": 4329,
      "Ġled": 4330,
      "Ġaspects": 4331,
      "Ġrecip": 4332,
      "Ġinhibitor": 4333,
      "Ġcm": 4334,
      "Ġorganic": 4335,
      "Ġbehind": 4336,
      "ĠWhile": 4337,
      "roll": 4338,
      "rete": 4339,
      "arr": 4340,
      "TH": 4341,
      "Ġlif": 4342,
      "Ġdiv": 4343,
      "Ġasked": 4344,
      "band": 4345,
      "apor": 4346,
      "Ġleave": 4347,
      "ĠGover": 4348,
      "Ġremained": 4349,
      "imer": 4350,
      "Ġbronch": 4351,
      "Ġtit": 4352,
      "Ġdeal": 4353,
      "obl": 4354,
      "Ġpreval": 4355,
      "ĠPar": 4356,
      "Ġhar": 4357,
      "Ġnoted": 4358,
      "ux": 4359,
      "ĠSer": 4360,
      "Ġgone": 4361,
      "Ġthickness": 4362,
      "Ġemployed": 4363,
      "opsy": 4364,
      "Ã¥": 4365,
      "Ġcart": 4366,
      "alpha": 4367,
      "Ġresin": 4368,
      "scill": 4369,
      "Ġresponsible": 4370,
      "ica": 4371,
      "RI": 4372,
      "icles": 4373,
      "rig": 4374,
      "Ġcountries": 4375,
      "Ġmis": 4376,
      "DL": 4377,
      "isions": 4378,
      "acet": 4379,
      "Ġpriv": 4380,
      "Ġsmaller": 4381,
      "ritis": 4382,
      "pos": 4383,
      "Ġuser": 4384,
      "Ġoriginal": 4385,
      "ĠAfric": 4386,
      "Ġcomplement": 4387,
      "ĠAnal": 4388,
      "ĠPart": 4389,
      "MS": 4390,
      "UL": 4391,
      "Ġgastric": 4392,
      "chem": 4393,
      "vious": 4394,
      "Ġreports": 4395,
      "ella": 4396,
      "Ġthreshold": 4397,
      "ĠTrans": 4398,
      "Ġcriteria": 4399,
      "Ġheating": 4400,
      "Ġamb": 4401,
      "seud": 4402,
      "amics": 4403,
      "oids": 4404,
      "Ġbearing": 4405,
      "immun": 4406,
      "tle": 4407,
      "rically": 4408,
      "ĠDr": 4409,
      "Ġure": 4410,
      "Ġfacilit": 4411,
      "Ġdraw": 4412,
      "ols": 4413,
      "Ġconvey": 4414,
      "Ġsteps": 4415,
      "oo": 4416,
      "Ġurinary": 4417,
      "shaped": 4418,
      "Ġwrit": 4419,
      "ĠFran": 4420,
      "ĠSub": 4421,
      "Ġwon": 4422,
      "ilateral": 4423,
      "ĠChrist": 4424,
      "erly": 4425,
      "Ġexpress": 4426,
      "link": 4427,
      "ĠCar": 4428,
      "ida": 4429,
      "Ġfrequently": 4430,
      "ued": 4431,
      "95": 4432,
      "Ġrepresents": 4433,
      "Ġmovable": 4434,
      "oking": 4435,
      "Ġevaluate": 4436,
      "yle": 4437,
      "Ġcharacteristic": 4438,
      "Ġmalignant": 4439,
      "Ġcontract": 4440,
      "Ġselection": 4441,
      "Ġwire": 4442,
      "Ġconclude": 4443,
      "Ġrob": 4444,
      "Ġarrangement": 4445,
      "Ġelectronic": 4446,
      "Ġexcess": 4447,
      "Ġextended": 4448,
      "Ġfract": 4449,
      "Ġstages": 4450,
      "Ġpubl": 4451,
      "Ġdied": 4452,
      ");": 4453,
      "Ġful": 4454,
      "Ġantigens": 4455,
      "%).": 4456,
      "ĠPe": 4457,
      "Ġtranscription": 4458,
      "ĠComp": 4459,
      "Ġuniform": 4460,
      "Ġphenomen": 4461,
      "ĠST": 4462,
      "Ġrout": 4463,
      "Ġclamp": 4464,
      "SF": 4465,
      "ometimes": 4466,
      "Ġfoot": 4467,
      "Ġrig": 4468,
      "Ġpharmac": 4469,
      "34": 4470,
      "aving": 4471,
      "Ġ48": 4472,
      "where": 4473,
      "Ġhaem": 4474,
      "Ġimplant": 4475,
      "ĠHere": 4476,
      "Ġtet": 4477,
      "oxyl": 4478,
      "Ġdetermination": 4479,
      "Ġslee": 4480,
      "Ġcommunic": 4481,
      "Ġpal": 4482,
      "Ġoscill": 4483,
      "Ġmyel": 4484,
      "Ġdescribes": 4485,
      "Ġshift": 4486,
      "Ġpull": 4487,
      "rief": 4488,
      "letion": 4489,
      "ĠNational": 4490,
      "Ġflat": 4491,
      "Ġearlier": 4492,
      "Ġ##": 4493,
      "MA": 4494,
      "Ġpostoperative": 4495,
      "Ġ32": 4496,
      "Ġelectroph": 4497,
      "Ġintake": 4498,
      "omal": 4499,
      "Ġelse": 4500,
      "Ġcannot": 4501,
      "RACT": 4502,
      "Ġmacroph": 4503,
      "Ġanything": 4504,
      "CA": 4505,
      "Ġboy": 4506,
      "Ġspontaneous": 4507,
      "Ġmixed": 4508,
      "Ġbecame": 4509,
      "Ġfing": 4510,
      "ĠCH": 4511,
      "Ġdynamic": 4512,
      "Ġwrong": 4513,
      "ĠFurthermore": 4514,
      "Ġstran": 4515,
      "Ġrapidly": 4516,
      "Ġduct": 4517,
      "75": 4518,
      "abor": 4519,
      "ivalent": 4520,
      "bor": 4521,
      "Ġfo": 4522,
      "ĠNot": 4523,
      "Ġrecombin": 4524,
      "Ġremains": 4525,
      "Ġsemicon": 4526,
      "linear": 4527,
      "STR": 4528,
      "Ġoste": 4529,
      "Ġatoms": 4530,
      "Ġpolym": 4531,
      "Ġpreferably": 4532,
      "Ġagreement": 4533,
      "enn": 4534,
      "Ġglob": 4535,
      "Ġillust": 4536,
      "Ġcheck": 4537,
      "thal": 4538,
      "ech": 4539,
      "×ķ": 4540,
      "Ġtubular": 4541,
      "ĠAct": 4542,
      "Ġcontrolling": 4543,
      "Ġmir": 4544,
      "agnetic": 4545,
      "Ġcoming": 4546,
      "Ġphosphor": 4547,
      "Ġmarrow": 4548,
      "Ġintegrated": 4549,
      "Ġinfected": 4550,
      "rown": 4551,
      "Ġrecognition": 4552,
      "Ġstream": 4553,
      "aut": 4554,
      "Ġneurons": 4555,
      "Ġcholesterol": 4556,
      "IDS": 4557,
      "chron": 4558,
      "isms": 4559,
      "function": 4560,
      "Ġleading": 4561,
      "ĠYork": 4562,
      "Ġdop": 4563,
      "Ġmechanical": 4564,
      "organ": 4565,
      "Ġplasm": 4566,
      "uracy": 4567,
      "Ġminor": 4568,
      "Ġknew": 4569,
      "Ġalkal": 4570,
      "ifier": 4571,
      "Ġquick": 4572,
      "Ġunique": 4573,
      "Ġhepatic": 4574,
      "Ġmembranes": 4575,
      "Ġboard": 4576,
      "Ġresour": 4577,
      "EP": 4578,
      "Ġago": 4579,
      "Ġdrop": 4580,
      "Ġstra": 4581,
      "Ġtrig": 4582,
      "odyn": 4583,
      "Ġpotent": 4584,
      "ublic": 4585,
      "Ġbiological": 4586,
      "itect": 4587,
      "ĠGroup": 4588,
      "Ġdirected": 4589,
      "Ġtun": 4590,
      "Ġinstit": 4591,
      "Ġtheoret": 4592,
      "vis": 4593,
      "ĠIgG": 4594,
      "âĪĴ": 4595,
      "Ġoperations": 4596,
      "Ġpartially": 4597,
      "Ġhope": 4598,
      "ĠSystem": 4599,
      "Ġkinase": 4600,
      "Ġrelax": 4601,
      "Ġneuro": 4602,
      "ogram": 4603,
      "Ġproxim": 4604,
      "rat": 4605,
      "Ġ>": 4606,
      "Ġeasy": 4607,
      "Ġresolution": 4608,
      "estern": 4609,
      "Ġmaintained": 4610,
      "Ġbind": 4611,
      "queous": 4612,
      "Ġreceive": 4613,
      "Ġdifferentiation": 4614,
      "STRACT": 4615,
      "Ġobservations": 4616,
      "Ġeasily": 4617,
      "Ġana": 4618,
      "Ġaer": 4619,
      "inated": 4620,
      "GE": 4621,
      "Ġidentical": 4622,
      "adder": 4623,
      "ipp": 4624,
      "Ġhair": 4625,
      "ptic": 4626,
      "Ġfold": 4627,
      "ĠÂ±": 4628,
      "Ġacceler": 4629,
      "etes": 4630,
      "An": 4631,
      "Ġsides": 4632,
      "Ġgraph": 4633,
      "Ġens": 4634,
      "Ġdriving": 4635,
      "ught": 4636,
      "Ġ200": 4637,
      "Ġtowards": 4638,
      "Ġpiston": 4639,
      "lyc": 4640,
      "Ġissue": 4641,
      "ĠInter": 4642,
      "rest": 4643,
      "Ġconstruction": 4644,
      "Ġretain": 4645,
      "Ġindustry": 4646,
      "Ġintern": 4647,
      "rupt": 4648,
      "Ġtransist": 4649,
      "Ġmoved": 4650,
      "Ġdescri": 4651,
      "Ġscale": 4652,
      "##": 4653,
      "Ġkidney": 4654,
      "ye": 4655,
      "cles": 4656,
      "32": 4657,
      "ĠSi": 4658,
      "Ġburn": 4659,
      "Ġtract": 4660,
      "Ġquantitative": 4661,
      "Ġexplain": 4662,
      "**": 4663,
      "Ġul": 4664,
      "198": 4665,
      "Ġchannels": 4666,
      "Ġwild": 4667,
      "Ġmorning": 4668,
      "ĠWas": 4669,
      "Ġdistributed": 4670,
      "'-": 4671,
      "ding": 4672,
      "osal": 4673,
      "Ġord": 4674,
      "Ġproportion": 4675,
      "Ġamounts": 4676,
      "45": 4677,
      "ias": 4678,
      "Ġhypothesis": 4679,
      "Ġhandle": 4680,
      "osine": 4681,
      "Ġchoice": 4682,
      "Ġidentification": 4683,
      "Ġseparated": 4684,
      "Ġcollected": 4685,
      "Ġoc": 4686,
      "Ġonset": 4687,
      "Ġhorizontal": 4688,
      "Ġquite": 4689,
      "itone": 4690,
      "leted": 4691,
      "Ġproper": 4692,
      "part": 4693,
      "ĠYour": 4694,
      "Ġ29": 4695,
      "Ġprogress": 4696,
      "Î±": 4697,
      "ĠState": 4698,
      "ibly": 4699,
      "Ġquestions": 4700,
      "Ġcomes": 4701,
      "orrh": 4702,
      "retion": 4703,
      "Ġeld": 4704,
      "entle": 4705,
      "iliary": 4706,
      "Ġprogn": 4707,
      "Ġischem": 4708,
      "rought": 4709,
      "Ġhighest": 4710,
      "Ġrequirements": 4711,
      "Ġinteractions": 4712,
      "Ġdial": 4713,
      "HT": 4714,
      "stream": 4715,
      "ĠWho": 4716,
      "fic": 4717,
      "ades": 4718,
      "cler": 4719,
      "Ġbill": 4720,
      "osomal": 4721,
      "Ġplus": 4722,
      "Ġdepos": 4723,
      "Ġcity": 4724,
      "Ġreviewed": 4725,
      "Ġslightly": 4726,
      "Ġalle": 4727,
      "Ġcompens": 4728,
      "undred": 4729,
      "gest": 4730,
      "Ġmonth": 4731,
      "Ġworkers": 4732,
      "conn": 4733,
      "ancing": 4734,
      "methyl": 4735,
      "Ġround": 4736,
      "Ġselective": 4737,
      "otide": 4738,
      "Ġnit": 4739,
      "Ġmolecules": 4740,
      "Ġholding": 4741,
      "Ġattrib": 4742,
      "Ġpancreat": 4743,
      "ĠMost": 4744,
      "Ġ37": 4745,
      "ĠWhere": 4746,
      "Ġrefer": 4747,
      "Ġmounting": 4748,
      "CAT": 4749,
      "Ġped": 4750,
      "Ġminimum": 4751,
      "Ġstimulated": 4752,
      "Ġdelivery": 4753,
      "arian": 4754,
      "light": 4755,
      "Ġpersist": 4756,
      "Ġorganization": 4757,
      "rolog": 4758,
      "mm": 4759,
      "Ġapert": 4760,
      "itter": 4761,
      "cil": 4762,
      "Ġcode": 4763,
      "Ġsimulation": 4764,
      "Ġefficacy": 4765,
      "Ġteac": 4766,
      "Ġpossibility": 4767,
      "olytic": 4768,
      "flu": 4769,
      "Ġvideo": 4770,
      "Ġraised": 4771,
      "ĠOnly": 4772,
      "ifying": 4773,
      "Ġuses": 4774,
      "Ġspread": 4775,
      "Ġwound": 4776,
      "UR": 4777,
      "ylene": 4778,
      "Ð»": 4779,
      "Ġadults": 4780,
      "Ġglut": 4781,
      "Ġ36": 4782,
      "Ġspat": 4783,
      "omatic": 4784,
      "Ġsigns": 4785,
      "Ġarr": 4786,
      "yond": 4787,
      "Ġmainly": 4788,
      "vin": 4789,
      "Ġreading": 4790,
      "Ġbox": 4791,
      "Ġinterval": 4792,
      "Ġta": 4793,
      "Ġloop": 4794,
      "ico": 4795,
      "Ġsoftware": 4796,
      "known": 4797,
      "DP": 4798,
      "Ġoutcome": 4799,
      "Ġcutting": 4800,
      "Ġasym": 4801,
      "Ġchanged": 4802,
      "Ġgate": 4803,
      "Ġforces": 4804,
      "treated": 4805,
      "Ġaccuracy": 4806,
      "enced": 4807,
      "Ġpersonal": 4808,
      "Ġlooking": 4809,
      "Ġreducing": 4810,
      "ĠEd": 4811,
      "Ġsearch": 4812,
      "inical": 4813,
      "ĠCor": 4814,
      "Ġwhom": 4815,
      "Ġspecimens": 4816,
      "ira": 4817,
      "Ġsper": 4818,
      "Ġtherein": 4819,
      "rition": 4820,
      "Ġmales": 4821,
      "Ġstabil": 4822,
      "alt": 4823,
      "ipment": 4824,
      "Ġdegrad": 4825,
      "but": 4826,
      "olved": 4827,
      "27": 4828,
      "Ġstrip": 4829,
      "Ġsalt": 4830,
      "osin": 4831,
      "Ġlipid": 4832,
      "Ġextreme": 4833,
      "Ġbreat": 4834,
      "Ġspectrum": 4835,
      "pth": 4836,
      "Ġfeeding": 4837,
      "haps": 4838,
      "ĠDis": 4839,
      "Ġcylindrical": 4840,
      "Ġleads": 4841,
      "Ġconsists": 4842,
      "helium": 4843,
      "Ġplatelet": 4844,
      "ĠGovernment": 4845,
      "Ġwindow": 4846,
      "Ġmajority": 4847,
      "exp": 4848,
      "CC": 4849,
      "Ġtask": 4850,
      "ĠOut": 4851,
      "rimin": 4852,
      "ĠSm": 4853,
      "Ġgame": 4854,
      "kelet": 4855,
      "Ġremaining": 4856,
      "ĠÎ¼": 4857,
      "Ġneural": 4858,
      "Ġdetector": 4859,
      "Ġtim": 4860,
      "Ġprobe": 4861,
      "Ġassist": 4862,
      "ĠEl": 4863,
      "ĠJohn": 4864,
      "Ġseat": 4865,
      "Ġcate": 4866,
      "Ġpopulations": 4867,
      "OL": 4868,
      "Ġstored": 4869,
      "Ġsystemic": 4870,
      "Ġanterior": 4871,
      "Ġinfar": 4872,
      "Ġactivated": 4873,
      "Ġangi": 4874,
      "Ġturned": 4875,
      "Ġstrongly": 4876,
      "Ġsecured": 4877,
      "Ġaqueous": 4878,
      "ude": 4879,
      "Ġrelates": 4880,
      "Ġways": 4881,
      "aine": 4882,
      "Ġsimultaneously": 4883,
      "ĠAg": 4884,
      "Ġrequires": 4885,
      "Ġmedic": 4886,
      "Ġtemperatures": 4887,
      "ĠAcc": 4888,
      "Ġrepeated": 4889,
      "Ġbasal": 4890,
      "bit": 4891,
      "Ġarth": 4892,
      "Ġsemiconductor": 4893,
      "Ġprosp": 4894,
      "Ġthemselves": 4895,
      "Ġshock": 4896,
      "IG": 4897,
      "Ġparents": 4898,
      "IM": 4899,
      "rium": 4900,
      "Ġanest": 4901,
      "Ġintracellular": 4902,
      "my": 4903,
      "ĠSuch": 4904,
      "Ġheight": 4905,
      "Ġnine": 4906,
      "Ġrecess": 4907,
      "Ġfully": 4908,
      "arrow": 4909,
      "Ġuns": 4910,
      "Ġpick": 4911,
      "Ġthread": 4912,
      "ochond": 4913,
      "Ġmusic": 4914,
      "Ġinterv": 4915,
      "ĠQue": 4916,
      "Ġhol": 4917,
      "Ġaware": 4918,
      "Ġinterface": 4919,
      "Ġmagnet": 4920,
      "III": 4921,
      "Ġtur": 4922,
      "ĠmM": 4923,
      "beta": 4924,
      "UT": 4925,
      "Ġdriven": 4926,
      "Ġsuscept": 4927,
      "ises": 4928,
      "Ġdisturb": 4929,
      "Ġdetermining": 4930,
      "Ġinvestigate": 4931,
      "ifically": 4932,
      "Ġreplic": 4933,
      "Ġcolumn": 4934,
      "Ġneon": 4935,
      "activity": 4936,
      "Ġscreening": 4937,
      "strial": 4938,
      "Ġaffinity": 4939,
      "Ġheard": 4940,
      "Ñĥ": 4941,
      "Ġtakes": 4942,
      "Ġfemales": 4943,
      "Ġspin": 4944,
      "Ġinvolvement": 4945,
      "Ġprevalence": 4946,
      "36": 4947,
      "Ġexec": 4948,
      "Ġfields": 4949,
      "Ġhundred": 4950,
      "Ġech": 4951,
      "ements": 4952,
      "Ġprotection": 4953,
      "Ġpercentage": 4954,
      "Ġcollagen": 4955,
      "OH": 4956,
      "Ġcru": 4957,
      "ĠHigh": 4958,
      "38": 4959,
      "Ġprote": 4960,
      "mediately": 4961,
      "Ġalb": 4962,
      "Ġvacu": 4963,
      "group": 4964,
      "uman": 4965,
      "Ġmicroscopy": 4966,
      "lt": 4967,
      "iling": 4968,
      "Ġfamilies": 4969,
      "Ġadequ": 4970,
      "ait": 4971,
      "ĠWOR": 4972,
      "Ġextensive": 4973,
      "istry": 4974,
      "Ġblue": 4975,
      "Ġoptimal": 4976,
      "Ġarchitect": 4977,
      "Ġdivided": 4978,
      "Ġversus": 4979,
      "Ġchol": 4980,
      "Ġselectively": 4981,
      "Ġenvironmental": 4982,
      "Ġthyroid": 4983,
      "rim": 4984,
      "Ġgradu": 4985,
      "Ġcommer": 4986,
      "uments": 4987,
      "iotic": 4988,
      "Ġsituation": 4989,
      "Ġeverything": 4990,
      "Ġben": 4991,
      "Ġexcell": 4992,
      "ĠPa": 4993,
      "jection": 4994,
      "Ġprolong": 4995,
      "okin": 4996,
      "Ġclearly": 4997,
      "Ġestablish": 4998,
      "Ġheavy": 4999,
      "Ġproliferation": 5000,
      "Ġadvanced": 5001,
      "Ġsleeve": 5002,
      "Ġcombust": 5003,
      "ads": 5004,
      "Ġshif": 5005,
      "Ġneck": 5006,
      "ĠDi": 5007,
      "Ġembodiment": 5008,
      "Ġregular": 5009,
      "ped": 5010,
      "ĠEv": 5011,
      "ector": 5012,
      "Ġ1990": 5013,
      "son": 5014,
      "Ġwanted": 5015,
      "Ġfinding": 5016,
      "ino": 5017,
      "Ġbag": 5018,
      "rons": 5019,
      "Ġclaim": 5020,
      "anks": 5021,
      "29": 5022,
      "ĠAND": 5023,
      "Ġnec": 5024,
      "%),": 5025,
      "Ġcultured": 5026,
      "Ġsafety": 5027,
      "Ġfluor": 5028,
      "Ġdetecting": 5029,
      "eding": 5030,
      "osomes": 5031,
      "ana": 5032,
      "CG": 5033,
      "Ġcast": 5034,
      "Ġurine": 5035,
      "Ġtown": 5036,
      "Ġseal": 5037,
      "Ġtransverse": 5038,
      "Ġbrief": 5039,
      "Ġenzymes": 5040,
      "rors": 5041,
      "Ġpit": 5042,
      "Ġsubun": 5043,
      "herent": 5044,
      "Ġolder": 5045,
      "ĠAbstract": 5046,
      "ĠATP": 5047,
      "Ġoffer": 5048,
      "Ġamplitude": 5049,
      "(-": 5050,
      "Ġones": 5051,
      "Ġrunning": 5052,
      "ĠFour": 5053,
      "uits": 5054,
      "Ġoverl": 5055,
      "Ġdrain": 5056,
      "opt": 5057,
      "Ġpredom": 5058,
      "ytic": 5059,
      "It": 5060,
      "Ġpipe": 5061,
      "Com": 5062,
      "Ġchemotherapy": 5063,
      "cers": 5064,
      "Ġopportun": 5065,
      "oked": 5066,
      "Ġchromatography": 5067,
      "Ġconfiguration": 5068,
      "alled": 5069,
      "oring": 5070,
      "Ġcerv": 5071,
      "Ġsi": 5072,
      "ria": 5073,
      "ĠPatients": 5074,
      "Ġpref": 5075,
      "Ġdrink": 5076,
      "Ġtransf": 5077,
      "Ġdispers": 5078,
      "isp": 5079,
      "Ġexpans": 5080,
      "olute": 5081,
      "Ġneutral": 5082,
      "Ġtension": 5083,
      "Ġmanifest": 5084,
      "Ġindicates": 5085,
      "ĠExper": 5086,
      "amples": 5087,
      "Ġcosts": 5088,
      "ĠâĢĺ": 5089,
      "Ġmilk": 5090,
      "Ġattack": 5091,
      "Ġextends": 5092,
      "Ġsignificance": 5093,
      "CE": 5094,
      "Ġfather": 5095,
      "wave": 5096,
      "ĠSouth": 5097,
      "Ġaccumulation": 5098,
      "eline": 5099,
      "ando": 5100,
      "Ġbrought": 5101,
      "Ġaggreg": 5102,
      "Ġaint": 5103,
      "ibration": 5104,
      "Ġequipment": 5105,
      "Ġdependence": 5106,
      "Ġtor": 5107,
      "Ġkill": 5108,
      "henyl": 5109,
      "DA": 5110,
      "Ġfell": 5111,
      "Ġqual": 5112,
      "Ġclon": 5113,
      "enic": 5114,
      "Ġagree": 5115,
      "containing": 5116,
      "Ġbacterial": 5117,
      "Ġbuff": 5118,
      "Ġpicture": 5119,
      "Ġcond": 5120,
      "ĠYoure": 5121,
      "Ġepithelial": 5122,
      "Ġ196": 5123,
      "........": 5124,
      "Ġabnormalities": 5125,
      "Ġexpect": 5126,
      "ek": 5127,
      "PP": 5128,
      "Ġsoon": 5129,
      "Ġtheoretical": 5130,
      "Ġdisapp": 5131,
      "Ġanalyses": 5132,
      "pir": 5133,
      "Ġbacteria": 5134,
      "Ġcord": 5135,
      "ĠHealth": 5136,
      "FN": 5137,
      "Ġfloor": 5138,
      "ayer": 5139,
      "Ġdisorder": 5140,
      "Ġstraight": 5141,
      "Ġclust": 5142,
      "Ġintegr": 5143,
      "Ġattach": 5144,
      "Ġclosely": 5145,
      "Ġpresents": 5146,
      "attering": 5147,
      "binding": 5148,
      "opathy": 5149,
      "ĠIV": 5150,
      "Ġcatalyst": 5151,
      "Ġexpand": 5152,
      "Ġdepression": 5153,
      "Ġaccomp": 5154,
      "Ġscanning": 5155,
      "Ġexamine": 5156,
      "Ġsegments": 5157,
      "ĠLike": 5158,
      "onia": 5159,
      "Ġ31": 5160,
      "Ġthym": 5161,
      "erative": 5162,
      "ply": 5163,
      "ĠOver": 5164,
      "Ġevolution": 5165,
      "men": 5166,
      "Ġrabbit": 5167,
      "Ġabsorb": 5168,
      "Ġexact": 5169,
      "Ġplates": 5170,
      "Ġcable": 5171,
      "Ġundergo": 5172,
      "Ġchromosome": 5173,
      "-(": 5174,
      "Ġsafe": 5175,
      "Ġnearly": 5176,
      "Ġfailed": 5177,
      "Ġelderly": 5178,
      "Ġinhibitory": 5179,
      "raint": 5180,
      "sec": 5181,
      "Ġbeyond": 5182,
      "Ġhole": 5183,
      "Ġrotat": 5184,
      "Ġtrying": 5185,
      "Â°": 5186,
      "Ġintact": 5187,
      "ĠAmerica": 5188,
      "ducing": 5189,
      "Ġreconst": 5190,
      "Ġnerv": 5191,
      "itten": 5192,
      "Ġparty": 5193,
      "alkyl": 5194,
      "Ġdiabetes": 5195,
      "ĠMod": 5196,
      "ilation": 5197,
      "Ġplanning": 5198,
      "44": 5199,
      "Ġcoil": 5200,
      "Ġrelationships": 5201,
      "Ġimplementation": 5202,
      "Ġswitching": 5203,
      "Ġfatty": 5204,
      "Ġgrowing": 5205,
      "Ġdepth": 5206,
      "Ġsilicon": 5207,
      "hal": 5208,
      "Ġinvolving": 5209,
      "Ġinstrument": 5210,
      "Ġmetabolic": 5211,
      "ceptor": 5212,
      "Ġcontext": 5213,
      "Ġperiods": 5214,
      "Ġappearance": 5215,
      "Ġoutlet": 5216,
      "Ġdefine": 5217,
      "cks": 5218,
      "Ġtravel": 5219,
      "ĠEm": 5220,
      "Da": 5221,
      "Ġgetting": 5222,
      "Ġpublished": 5223,
      "Ġspecificity": 5224,
      "Ġscheme": 5225,
      "mar": 5226,
      "ĠMon": 5227,
      "Ġimmediately": 5228,
      "×ķ×": 5229,
      "Ġmu": 5230,
      "plas": 5231,
      "oes": 5232,
      "Ġworks": 5233,
      "Ġspeech": 5234,
      "Ġalumin": 5235,
      "gal": 5236,
      "Ġmethyl": 5237,
      "Ġinterfer": 5238,
      "Ġmagnitude": 5239,
      "Ġimplications": 5240,
      "Ġexcellent": 5241,
      "Ġbegan": 5242,
      "Ġcapt": 5243,
      "Ġbow": 5244,
      "Ġcrystal": 5245,
      "Ġconsumption": 5246,
      "genase": 5247,
      "ĠTherefore": 5248,
      "Ġfight": 5249,
      "Ġscient": 5250,
      "lies": 5251,
      "ĠAre": 5252,
      "Ġ75": 5253,
      "BC": 5254,
      "Ġtight": 5255,
      "Ġnetworks": 5256,
      "Ġfilms": 5257,
      "Ġaccurate": 5258,
      "Ġsynthetic": 5259,
      "Ġprofile": 5260,
      "Ġfragment": 5261,
      "dominal": 5262,
      "rawn": 5263,
      "Ġprotoc": 5264,
      "Ġhistor": 5265,
      "Ġstarted": 5266,
      "Ġcompany": 5267,
      "Ġalgorithms": 5268,
      "irty": 5269,
      "aker": 5270,
      "Ġrub": 5271,
      "ille": 5272,
      "Ġtransient": 5273,
      "Ġfun": 5274,
      "Ġcamp": 5275,
      "point": 5276,
      "Ġye": 5277,
      "Ġstem": 5278,
      "oi": 5279,
      "IR": 5280,
      "orld": 5281,
      "asons": 5282,
      "Ġconstructed": 5283,
      "ony": 5284,
      "Ġolig": 5285,
      "Ġfit": 5286,
      "ĠGu": 5287,
      "isation": 5288,
      "Ġsetting": 5289,
      "Ġcarrying": 5290,
      "Ġfriends": 5291,
      "uma": 5292,
      "ĠTO": 5293,
      "ken": 5294,
      "Ġphosphat": 5295,
      "osterone": 5296,
      "Ġallowed": 5297,
      "Ġoperated": 5298,
      "Ġachieve": 5299,
      "Ġextension": 5300,
      "Ġcatheter": 5301,
      "Ġviol": 5302,
      "uous": 5303,
      "Ġreached": 5304,
      "Ġhur": 5305,
      "ĠUS": 5306,
      "termin": 5307,
      "Ġdistal": 5308,
      "Ġaged": 5309,
      "IA": 5310,
      "Ġya": 5311,
      "Ġadvantage": 5312,
      "ĠSte": 5313,
      "Ġsets": 5314,
      "Ġpiece": 5315,
      "Ġ33": 5316,
      "ABSTRACT": 5317,
      "rich": 5318,
      "ĠId": 5319,
      "mosp": 5320,
      "ovine": 5321,
      "ss": 5322,
      "ĠWORDS": 5323,
      "Ġpersons": 5324,
      "Ġinlet": 5325,
      "Ġwhereby": 5326,
      "Ġfir": 5327,
      "Ġannular": 5328,
      "Ġformer": 5329,
      "ignment": 5330,
      "Ġsynthes": 5331,
      "Ġgun": 5332,
      "CATED": 5333,
      "Ġbeginning": 5334,
      "ĠTRUN": 5335,
      "Ġrh": 5336,
      "Ġresidues": 5337,
      "glut": 5338,
      "ĠTRUNCATED": 5339,
      "Ġfelt": 5340,
      "Ġapproaches": 5341,
      "Ġhimself": 5342,
      "Ġlys": 5343,
      "ociation": 5344,
      "Ġlin": 5345,
      "atur": 5346,
      "Ġexisting": 5347,
      "Ġdeficiency": 5348,
      "hesia": 5349,
      "Ġshell": 5350,
      "vision": 5351,
      "cine": 5352,
      "Ġteam": 5353,
      "load": 5354,
      "48": 5355,
      "Ġvariations": 5356,
      "Ġresonance": 5357,
      "Ġstro": 5358,
      "ĠFinally": 5359,
      "Ġseparation": 5360,
      "Ġspir": 5361,
      "ema": 5362,
      "ĠPresident": 5363,
      "Ġdiscrimin": 5364,
      "ĠHer": 5365,
      "elled": 5366,
      "born": 5367,
      "eli": 5368,
      "Ġcolle": 5369,
      "Ġmol": 5370,
      "dy": 5371,
      "itudes": 5372,
      "Ġearth": 5373,
      "ocation": 5374,
      "chlor": 5375,
      "Ġ/": 5376,
      "ĠFirst": 5377,
      "Ġtape": 5378,
      "ophy": 5379,
      "Ġ1980": 5380,
      "Ġspinal": 5381,
      "oura": 5382,
      "Ġhour": 5383,
      "lab": 5384,
      "Ġinterconn": 5385,
      "Ġlamin": 5386,
      "ociated": 5387,
      "Ġty": 5388,
      "Ġcollection": 5389,
      "ĠEsc": 5390,
      "ĠGl": 5391,
      "anges": 5392,
      "Ġbehaviour": 5393,
      "Ġidea": 5394,
      "Ġmilit": 5395,
      "ano": 5396,
      "Ġtonight": 5397,
      "teen": 5398,
      "Ġresistant": 5399,
      "eces": 5400,
      "Ġsac": 5401,
      "Ġpossess": 5402,
      "Ġinserted": 5403,
      "Ġconnecting": 5404,
      "uries": 5405,
      "Ġgest": 5406,
      "phone": 5407,
      "Al": 5408,
      "Ġfre": 5409,
      "Ġlooked": 5410,
      "ĠGerm": 5411,
      "BP": 5412,
      "Ġrecognized": 5413,
      "Ġdat": 5414,
      "Ġgear": 5415,
      "Ġcooling": 5416,
      "Ġcand": 5417,
      "Ġleukemia": 5418,
      "omb": 5419,
      "Ġmelan": 5420,
      "obic": 5421,
      "Ġlesion": 5422,
      "Ġnitrogen": 5423,
      "rade": 5424,
      "ĠÏ": 5425,
      "Ġapart": 5426,
      "izations": 5427,
      "ologous": 5428,
      "ners": 5429,
      "onin": 5430,
      "ĠLook": 5431,
      "Ġwont": 5432,
      "ĠAlso": 5433,
      "Ġbuilding": 5434,
      "Ġnarrow": 5435,
      "Ġchick": 5436,
      "Ġtank": 5437,
      "37": 5438,
      "Ġtypical": 5439,
      "crib": 5440,
      "ductive": 5441,
      "Ġstar": 5442,
      "rose": 5443,
      "Ġremember": 5444,
      "Ġobservation": 5445,
      "ĠHouse": 5446,
      "HR": 5447,
      "Ġgastro": 5448,
      "idal": 5449,
      "Ġsubstantial": 5450,
      "Ġedges": 5451,
      "hydroxy": 5452,
      "Ġoperative": 5453,
      "Ġbackground": 5454,
      "Ġinjected": 5455,
      "99": 5456,
      "Ġfibrobl": 5457,
      "Ġexhibited": 5458,
      "imb": 5459,
      "Ġuna": 5460,
      "Ġparameter": 5461,
      "Ġdoub": 5462,
      "SP": 5463,
      "ĠAIDS": 5464,
      "Ġsera": 5465,
      "asure": 5466,
      "ĠRo": 5467,
      "Ġbiopsy": 5468,
      "down": 5469,
      "ama": 5470,
      "Ġnone": 5471,
      "Ġplants": 5472,
      "Ġlogic": 5473,
      "Ġpairs": 5474,
      "Ġsatisfact": 5475,
      "Ġng": 5476,
      "asion": 5477,
      "You": 5478,
      "NF": 5479,
      "omat": 5480,
      "orrow": 5481,
      "Ġprimarily": 5482,
      "Ġ38": 5483,
      "Ġsexual": 5484,
      "Ġbenz": 5485,
      "ĠAnalysis": 5486,
      "gency": 5487,
      "Ġwidth": 5488,
      "ogeneous": 5489,
      "Ġmild": 5490,
      "Ġexpansion": 5491,
      "Ġign": 5492,
      "Ġrecur": 5493,
      "Ġpredicted": 5494,
      "Ġtraditional": 5495,
      "ĠSur": 5496,
      "asc": 5497,
      "Ġcho": 5498,
      "Ġlocking": 5499,
      "Ġobjects": 5500,
      ".(": 5501,
      "Ġspatial": 5502,
      "Ġ34": 5503,
      "Ġsomeone": 5504,
      "Ġnozz": 5505,
      "Ġdistingu": 5506,
      "ĠĠĠĠĠĠĠĠ": 5507,
      "Ġfresh": 5508,
      "Ġvaried": 5509,
      "tenance": 5510,
      "Ġmutant": 5511,
      "ny": 5512,
      "Ġstaff": 5513,
      "erences": 5514,
      "obacter": 5515,
      "Ġintestinal": 5516,
      "Ġthor": 5517,
      "Ġfeet": 5518,
      "Ġintervals": 5519,
      "Ġgang": 5520,
      "enge": 5521,
      "Ġshare": 5522,
      "Ġaxial": 5523,
      "ione": 5524,
      "Ġnervous": 5525,
      "Ġstatistically": 5526,
      "Ġsuperior": 5527,
      "unct": 5528,
      "Ġblade": 5529,
      "Ġcombustion": 5530,
      "Ġions": 5531,
      "Ġfeature": 5532,
      "Ġviral": 5533,
      "Ġscreen": 5534,
      "ĠCON": 5535,
      "illin": 5536,
      "Ġcircuits": 5537,
      "ĠOther": 5538,
      "Ġobjective": 5539,
      "gar": 5540,
      "Ġvag": 5541,
      "Ġinterview": 5542,
      "Ġhydrox": 5543,
      "ĠMc": 5544,
      "Ġexceed": 5545,
      "Ġcytotox": 5546,
      "Ġmitochond": 5547,
      "ynt": 5548,
      "ĠGood": 5549,
      "Ġorth": 5550,
      "Ã§": 5551,
      "ĠEar": 5552,
      "Ġperme": 5553,
      "abilities": 5554,
      "oplastic": 5555,
      "Ġcorrection": 5556,
      "Ġparas": 5557,
      "Ġjunction": 5558,
      "ethod": 5559,
      "Ġexcretion": 5560,
      "Ġmag": 5561,
      "adren": 5562,
      "ĠChar": 5563,
      "da": 5564,
      "Ġegg": 5565,
      "Ġgold": 5566,
      "ĠKe": 5567,
      "Ġforeign": 5568,
      "ichia": 5569,
      "mediated": 5570,
      "phase": 5571,
      "ĠGet": 5572,
      "Ġpreferred": 5573,
      "rophy": 5574,
      "Ġhepatitis": 5575,
      "asal": 5576,
      "Ġgranul": 5577,
      "kay": 5578,
      "Ġcomplexes": 5579,
      "une": 5580,
      "Ġcomparable": 5581,
      "ping": 5582,
      "Ġtrend": 5583,
      "oded": 5584,
      "Ġhop": 5585,
      "Ġmine": 5586,
      "Ġpermit": 5587,
      "aired": 5588,
      "Ġroutine": 5589,
      "Ġsynchron": 5590,
      "Ġautomatic": 5591,
      "Ġnormally": 5592,
      "Ġreleased": 5593,
      "lar": 5594,
      "ca": 5595,
      "itoneal": 5596,
      "infor": 5597,
      "ording": 5598,
      "positive": 5599,
      "Ġcomposed": 5600,
      "Ġproved": 5601,
      "Hz": 5602,
      "Ġinterior": 5603,
      "33": 5604,
      "Ġroad": 5605,
      "Ġelectrodes": 5606,
      "Ġstory": 5607,
      "Ġmyself": 5608,
      "Ġvirt": 5609,
      "Ġformal": 5610,
      "ĠBritish": 5611,
      "OM": 5612,
      "izer": 5613,
      "Ġfeedback": 5614,
      "Ġanswer": 5615,
      "Ġfavor": 5616,
      "olymer": 5617,
      "Ġgoes": 5618,
      "Ġspectra": 5619,
      "Ġmanip": 5620,
      "Ġcompression": 5621,
      "Ġelongated": 5622,
      "CP": 5623,
      "Ġscores": 5624,
      "Ġunderwent": 5625,
      "ĠNorth": 5626,
      "eling": 5627,
      "Ġplacebo": 5628,
      "Ġvarying": 5629,
      "Ġdiabetic": 5630,
      "Ġgap": 5631,
      "herichia": 5632,
      ".\"": 5633,
      "rab": 5634,
      "EA": 5635,
      "Ġframew": 5636,
      "ressor": 5637,
      "TA": 5638,
      "Ġgives": 5639,
      "Ġatmosp": 5640,
      "Ġregional": 5641,
      "Ġequivalent": 5642,
      "Ġprecise": 5643,
      "cutaneous": 5644,
      "65": 5645,
      "Ġderivatives": 5646,
      "with": 5647,
      "Ġbore": 5648,
      "Ġsupplement": 5649,
      "Ġinstruction": 5650,
      "Ġtransplantation": 5651,
      "Ġcontraction": 5652,
      "roscopy": 5653,
      "hemat": 5654,
      "secut": 5655,
      "ees": 5656,
      "Ġcontamin": 5657,
      "Ġaid": 5658,
      "Ġirradiation": 5659,
      "Ġteeth": 5660,
      "Ġsubt": 5661,
      "Ġnonlinear": 5662,
      "Ġid": 5663,
      "Ġtransformation": 5664,
      "Ġmacrophages": 5665,
      "Ġpp": 5666,
      "Ġconsiderable": 5667,
      "Ġ1989": 5668,
      "fully": 5669,
      "Ġwonder": 5670,
      "Ġactual": 5671,
      "Ġconversion": 5672,
      "earch": 5673,
      "hens": 5674,
      "Ġinhibitors": 5675,
      "PL": 5676,
      "Ġfal": 5677,
      "Ġprivate": 5678,
      "Ġdiagnosed": 5679,
      "Ġpractical": 5680,
      "uh": 5681,
      "ĠcDNA": 5682,
      "Ġcooper": 5683,
      "Ġseemed": 5684,
      "lycer": 5685,
      "imet": 5686,
      "Ġrepair": 5687,
      "pan": 5688,
      "Ġperman": 5689,
      "Ġfair": 5690,
      "Ġbalance": 5691,
      "Ġstack": 5692,
      "haust": 5693,
      "ilization": 5694,
      "Ġbovine": 5695,
      "Ãª": 5696,
      "Ġerythrocy": 5697,
      "Ġlib": 5698,
      "Ġrow": 5699,
      "Ġclearance": 5700,
      "Ġnod": 5701,
      "Ġwithd": 5702,
      "Ġmental": 5703,
      "ifferent": 5704,
      "Ġabsolute": 5705,
      "ĠEscherichia": 5706,
      "Ġprem": 5707,
      "ĠNO": 5708,
      "Ġunderlying": 5709,
      "state": 5710,
      "Ġscrew": 5711,
      "Ġbol": 5712,
      "Ġchance": 5713,
      "ĠMinister": 5714,
      "Mr": 5715,
      "Ġmoderate": 5716,
      "Ġpercept": 5717,
      "Ġsealing": 5718,
      "Ġpel": 5719,
      "ĠCons": 5720,
      "Ġcyst": 5721,
      "Ġconcerning": 5722,
      "Ġbelt": 5723,
      "ĠSix": 5724,
      "Ġsometimes": 5725,
      "ĠSw": 5726,
      "Ġeffectiveness": 5727,
      "Ġdiffer": 5728,
      "Ġgrown": 5729,
      "Ġessentially": 5730,
      "Ð°Ð": 5731,
      "Ġhollow": 5732,
      "Ġfrequencies": 5733,
      "Ġpure": 5734,
      "Ġti": 5735,
      "Ġcontinued": 5736,
      "omers": 5737,
      "Ġcytoplas": 5738,
      "Ġsort": 5739,
      "yg": 5740,
      "Ġgenerating": 5741,
      "ovascular": 5742,
      "Ġbodies": 5743,
      "mitte": 5744,
      "rant": 5745,
      "carbon": 5746,
      "Ġplat": 5747,
      "Ġaltered": 5748,
      "rect": 5749,
      "ĠReg": 5750,
      "Ġthats": 5751,
      "Ġwait": 5752,
      "ought": 5753,
      "Ġstrategies": 5754,
      "Ġvenous": 5755,
      "Ġinfarction": 5756,
      "Ġready": 5757,
      "Ġvitamin": 5758,
      "Ġham": 5759,
      "erved": 5760,
      "ocket": 5761,
      "ĠMoreover": 5762,
      "iety": 5763,
      "imen": 5764,
      "Ġcoord": 5765,
      "\"\"": 5766,
      "amino": 5767,
      "entleman": 5768,
      "Ġroller": 5769,
      "CM": 5770,
      "Ġvacuum": 5771,
      "raul": 5772,
      "Ġsubstance": 5773,
      "IP": 5774,
      "EG": 5775,
      "elect": 5776,
      "Ġcoun": 5777,
      "pler": 5778,
      "Ġsed": 5779,
      "asive": 5780,
      "iences": 5781,
      "Ġ1988": 5782,
      "Ġvan": 5783,
      "Ġfrequent": 5784,
      "Ġsaying": 5785,
      "Ġhemat": 5786,
      "Ġchanging": 5787,
      "Ġauto": 5788,
      "Ġagon": 5789,
      "Ġroot": 5790,
      "iam": 5791,
      "Ġbud": 5792,
      "Ġphysiological": 5793,
      "hythm": 5794,
      "cha": 5795,
      "Ġfeeling": 5796,
      "ĠBet": 5797,
      "Ġsea": 5798,
      "acchar": 5799,
      "Ġminimal": 5800,
      "Ġexistence": 5801,
      "ĠAmong": 5802,
      "Ġmilitary": 5803,
      "amed": 5804,
      "Ġdisk": 5805,
      "ĠCong": 5806,
      "ĠMic": 5807,
      "Ġmetall": 5808,
      "ev": 5809,
      "Ġresources": 5810,
      "ĉĉĉĉ": 5811,
      "Ġcard": 5812,
      "Ġinternational": 5813,
      "Ġcran": 5814,
      "ĠUnder": 5815,
      "Ġillness": 5816,
      "Ġvessels": 5817,
      "ban": 5818,
      "ĠFl": 5819,
      "Ġmaintenance": 5820,
      "ĠSever": 5821,
      "Ġframework": 5822,
      "Ġmer": 5823,
      "Ġvector": 5824,
      "Ġoccurrence": 5825,
      "aken": 5826,
      "sensitive": 5827,
      "iminary": 5828,
      "Ġdos": 5829,
      "Ġcontroller": 5830,
      "Ġpreparations": 5831,
      "ĠDepartment": 5832,
      "Ġexhaust": 5833,
      "oglobin": 5834,
      "ead": 5835,
      "berg": 5836,
      "Ġcomposite": 5837,
      "py": 5838,
      "azine": 5839,
      "Ġconductive": 5840,
      "Ġec": 5841,
      "inea": 5842,
      "ECT": 5843,
      "Ġspecifically": 5844,
      "vered": 5845,
      "oration": 5846,
      "Ġitem": 5847,
      "ĠDoes": 5848,
      "Ġpoll": 5849,
      "ĠWorld": 5850,
      "Ġrigid": 5851,
      "oir": 5852,
      "ender": 5853,
      "ĠWest": 5854,
      "Ġmaximal": 5855,
      "Ġorientation": 5856,
      "Ġstaining": 5857,
      "Ġpolype": 5858,
      "AMP": 5859,
      "Ġfru": 5860,
      "ĠHy": 5861,
      "ĠElect": 5862,
      "ĠSu": 5863,
      "Ġstatistical": 5864,
      "Ġdespite": 5865,
      "sm": 5866,
      "atch": 5867,
      "rason": 5868,
      "olysis": 5869,
      "imate": 5870,
      "Ġdemand": 5871,
      "idation": 5872,
      "igg": 5873,
      "Ġimag": 5874,
      "ĠHist": 5875,
      "urance": 5876,
      "pre": 5877,
      "Ġstrategy": 5878,
      "Ġ1986": 5879,
      "vest": 5880,
      "itors": 5881,
      "ipal": 5882,
      "ĠHar": 5883,
      "Ġsubstituted": 5884,
      "vol": 5885,
      "car": 5886,
      "igen": 5887,
      "certain": 5888,
      "mean": 5889,
      "Ġgland": 5890,
      "Ġinduce": 5891,
      "Ġofficial": 5892,
      "Ġgirls": 5893,
      "acin": 5894,
      "Ġunknown": 5895,
      "Ġseed": 5896,
      "Ġturb": 5897,
      "Ġtouch": 5898,
      "Ġoffice": 5899,
      "anth": 5900,
      "Ġconfirm": 5901,
      "Ġzero": 5902,
      "ervation": 5903,
      "Ġmarkedly": 5904,
      "Ġdefects": 5905,
      "Ġ65": 5906,
      "Ġprotect": 5907,
      "ulum": 5908,
      "rack": 5909,
      "Ġcompositions": 5910,
      "uation": 5911,
      "Ġester": 5912,
      "puter": 5913,
      "Ġju": 5914,
      "Ġslot": 5915,
      "key": 5916,
      "cycl": 5917,
      "Ġsoul": 5918,
      "odynamic": 5919,
      "keletal": 5920,
      "ĠAng": 5921,
      "Ġconclusion": 5922,
      "Ġsociety": 5923,
      "ĠJe": 5924,
      "Ġmand": 5925,
      "Ġserve": 5926,
      "Ġrepresented": 5927,
      "Ġprecurs": 5928,
      "Ġepis": 5929,
      "Ġprolonged": 5930,
      "bre": 5931,
      "Ġwaste": 5932,
      "ĠMany": 5933,
      "Ġmicros": 5934,
      "ivation": 5935,
      "Ġpulses": 5936,
      "Ġgrad": 5937,
      "uting": 5938,
      "coprotein": 5939,
      "ricted": 5940,
      "Ġ95": 5941,
      "ĠSP": 5942,
      "Ġisolates": 5943,
      "OD": 5944,
      "Ġapplying": 5945,
      "Ġbeg": 5946,
      "Ġmodern": 5947,
      "Ġprospective": 5948,
      "section": 5949,
      "Ġengagement": 5950,
      "Ġclinically": 5951,
      "mber": 5952,
      "elf": 5953,
      "Ġhab": 5954,
      "Ġchallenge": 5955,
      "Ġwin": 5956,
      "cious": 5957,
      "Ġnursing": 5958,
      "ado": 5959,
      "ĠGo": 5960,
      "iaz": 5961,
      "ĠCM": 5962,
      "ycl": 5963,
      "ĠData": 5964,
      "Ġrain": 5965,
      "Ġindustrial": 5966,
      "Ġsinus": 5967,
      "bal": 5968,
      "Ġdiscussion": 5969,
      "from": 5970,
      "orter": 5971,
      "39": 5972,
      "Ġtree": 5973,
      "Ġoccurring": 5974,
      "Ġ1987": 5975,
      "Ġshowing": 5976,
      "Ġemerg": 5977,
      "resist": 5978,
      "Ġconnector": 5979,
      "Ġclosure": 5980,
      "flow": 5981,
      "Ġdegradation": 5982,
      "Ġtransp": 5983,
      "Ġequations": 5984,
      "Ġmolecule": 5985,
      "BA": 5986,
      "Wh": 5987,
      "Ġinsp": 5988,
      "Ġclinic": 5989,
      "Ġdent": 5990,
      "anine": 5991,
      "Ġatom": 5992,
      "Ġequation": 5993,
      "Ġpap": 5994,
      "Ġcurve": 5995,
      "Ġinflammatory": 5996,
      "rench": 5997,
      "Ġ1991": 5998,
      "Ġ42": 5999,
      "Ġinfant": 6000,
      "ĠmicroM": 6001,
      "Ġarc": 6002,
      "Ġneigh": 6003,
      "wenty": 6004,
      "Ġpassed": 6005,
      "usions": 6006,
      "Ġexperien": 6007,
      "Ġenerg": 6008,
      "Ġreach": 6009,
      "Ġkg": 6010,
      "Ġtreatments": 6011,
      "Ġreinfor": 6012,
      "Ġsett": 6013,
      "Ġfuck": 6014,
      "ilib": 6015,
      "×Ļ×": 6016,
      "Ġpancreatic": 6017,
      "Ġtalking": 6018,
      "Ġelectrically": 6019,
      "Ġproximal": 6020,
      "Ġcontinue": 6021,
      "Ġreasons": 6022,
      "Ġrules": 6023,
      "urch": 6024,
      "Ãł": 6025,
      "ĠDem": 6026,
      "Ġprotective": 6027,
      "hern": 6028,
      "ider": 6029,
      "Ġhydraul": 6030,
      "hab": 6031,
      "Ġru": 6032,
      "Ġpredominant": 6033,
      "Ġpenet": 6034,
      "Ġtwice": 6035,
      "Ġnucleus": 6036,
      "ycin": 6037,
      "Ġsolvent": 6038,
      "Ġfert": 6039,
      "iol": 6040,
      "Ġcaps": 6041,
      "Â·": 6042,
      "avage": 6043,
      "ophage": 6044,
      "Ġperhaps": 6045,
      "Ġtoxicity": 6046,
      "Ġsubjected": 6047,
      "Ġemer": 6048,
      "oming": 6049,
      "oke": 6050,
      "Ġtrade": 6051,
      "Ġwritten": 6052,
      "ÐµÐ": 6053,
      "Ġwavel": 6054,
      "Ġfragments": 6055,
      "hington": 6056,
      "Ġregression": 6057,
      "Ġproduces": 6058,
      "Ġsong": 6059,
      "Ġrotating": 6060,
      "Ġaortic": 6061,
      "ĠCu": 6062,
      "Ġmuscles": 6063,
      "otropic": 6064,
      "ĠEven": 6065,
      "weight": 6066,
      "ĠEuropean": 6067,
      "iologic": 6068,
      "Ġchloride": 6069,
      "field": 6070,
      "Ġnode": 6071,
      "ache": 6072,
      "Ġsymmet": 6073,
      "Ġsen": 6074,
      "Ġgenerator": 6075,
      "Ġstarting": 6076,
      "Ġposterior": 6077,
      "ulph": 6078,
      "Ġcervical": 6079,
      "ructure": 6080,
      "Ġdelayed": 6081,
      "31": 6082,
      "unte": 6083,
      "Ġprevention": 6084,
      "iers": 6085,
      "Ġmediated": 6086,
      "Ġsupports": 6087,
      "Ġsust": 6088,
      "Ġsweet": 6089,
      "Ġdiffusion": 6090,
      "Ġphosphate": 6091,
      "Ġing": 6092,
      "Ġindependently": 6093,
      "Ġdrum": 6094,
      "ĠChe": 6095,
      "Ġattachment": 6096,
      "Ġcircular": 6097,
      "ĠSeveral": 6098,
      "Ġerrors": 6099,
      "Ġwaves": 6100,
      "arter": 6101,
      "ket": 6102,
      "Ġabdominal": 6103,
      "Ġatten": 6104,
      "Ġ1992": 6105,
      "Ġcondu": 6106,
      "Ġchest": 6107,
      "ĠNon": 6108,
      "board": 6109,
      "Ġseverity": 6110,
      "46": 6111,
      "Ġlie": 6112,
      "Ca": 6113,
      "ontin": 6114,
      "Ġscattering": 6115,
      "Ġbecomes": 6116,
      "Ġcamera": 6117,
      "Ġjour": 6118,
      "level": 6119,
      "ora": 6120,
      "Ġendothelial": 6121,
      "acryl": 6122,
      "ĠTheres": 6123,
      "Ġtried": 6124,
      "Ġregarding": 6125,
      "Ġmouth": 6126,
      "Ġfish": 6127,
      "Ġsurrounding": 6128,
      "Ġpeptides": 6129,
      "Ġ55": 6130,
      "velopment": 6131,
      "leuk": 6132,
      "Ġdefect": 6133,
      "terminal": 6134,
      "Im": 6135,
      "work": 6136,
      "Ġrecombinant": 6137,
      "Ġpromoter": 6138,
      "Ġclassification": 6139,
      "oresis": 6140,
      "Ġshut": 6141,
      "ĠAL": 6142,
      "Ġhydroly": 6143,
      "ctors": 6144,
      "Ġpresident": 6145,
      "ĠCalif": 6146,
      "Ġboys": 6147,
      "Ġconcerned": 6148,
      "Ã¨": 6149,
      "roc": 6150,
      "Ġtrials": 6151,
      "Ġfear": 6152,
      "Ġasth": 6153,
      "phrine": 6154,
      "eles": 6155,
      "Ġneph": 6156,
      "Ġsoil": 6157,
      "oidal": 6158,
      "Ġgreen": 6159,
      "rav": 6160,
      "abs": 6161,
      "ĠWashington": 6162,
      "Ġpathway": 6163,
      "effect": 6164,
      "Ġsud": 6165,
      "Ġelastic": 6166,
      "ococcus": 6167,
      "Ġestimate": 6168,
      "Ġintervention": 6169,
      "Ġremote": 6170,
      "ologies": 6171,
      "ĠTwenty": 6172,
      "Ġconsecut": 6173,
      "Ġflux": 6174,
      "eur": 6175,
      "ĠMR": 6176,
      "omycin": 6177,
      "ĠMA": 6178,
      "ĠNever": 6179,
      "Ġtoxic": 6180,
      "alian": 6181,
      "Ġelectrom": 6182,
      "Ġcust": 6183,
      "Ġbatter": 6184,
      "Ġsteady": 6185,
      "Ġil": 6186,
      "Ġdescription": 6187,
      "rand": 6188,
      "Ġrelevant": 6189,
      "ĠGentleman": 6190,
      "Ġcompl": 6191,
      "ĠGeor": 6192,
      "Ġneedle": 6193,
      "Ġulcer": 6194,
      "Ġvapor": 6195,
      "inic": 6196,
      "Ġpseud": 6197,
      ".-": 6198,
      "ĠTheir": 6199,
      "Ġspeak": 6200,
      "Ġextracellular": 6201,
      "Ġproport": 6202,
      "Ġcommercial": 6203,
      "Ġcausing": 6204,
      "mal": 6205,
      "Ġcharacterization": 6206,
      "Ġinsertion": 6207,
      "ĠØ": 6208,
      "linked": 6209,
      "ometer": 6210,
      "Ġcoefficient": 6211,
      "Ġvict": 6212,
      "Ġrotor": 6213,
      "Ġreverse": 6214,
      "Ġnutrition": 6215,
      "And": 6216,
      "ĠCommun": 6217,
      "ellig": 6218,
      "ochem": 6219,
      "ĠAccording": 6220,
      "We": 6221,
      "Ġmaternal": 6222,
      "OU": 6223,
      "ocytic": 6224,
      "Ġcopper": 6225,
      "azole": 6226,
      "assium": 6227,
      "Ġallowing": 6228,
      "asty": 6229,
      "Ġcommonly": 6230,
      "Ġknows": 6231,
      "Ġsupplied": 6232,
      "Ġwidely": 6233,
      "Ġsoluble": 6234,
      "Ġhell": 6235,
      "Ġsmoking": 6236,
      "ophosph": 6237,
      "ares": 6238,
      "Ġmask": 6239,
      "Ġautomatically": 6240,
      "Âł": 6241,
      "Ġbeat": 6242,
      "Ġaccompl": 6243,
      "Ġcogn": 6244,
      "Ġfluorescence": 6245,
      "Ġadequate": 6246,
      "Ġcit": 6247,
      "Ġinn": 6248,
      "TP": 6249,
      "ĠMethod": 6250,
      "Ġmedi": 6251,
      "Ġ500": 6252,
      "ĠÃ©": 6253,
      "mary": 6254,
      "Ġcontribute": 6255,
      "Ġclasses": 6256,
      "no": 6257,
      "Ġexplained": 6258,
      "atell": 6259,
      "ĠWar": 6260,
      "Ġparticle": 6261,
      "NS": 6262,
      "Ġethanol": 6263,
      "ĠSen": 6264,
      "uitary": 6265,
      "Ġbrother": 6266,
      "asks": 6267,
      "ĠLord": 6268,
      "Ġsand": 6269,
      "Ġreplacement": 6270,
      "osen": 6271,
      "Ġtumour": 6272,
      "Ġarticles": 6273,
      "Ġkept": 6274,
      "Ġbelong": 6275,
      "apse": 6276,
      "rie": 6277,
      "ÑĮ": 6278,
      "ĠStre": 6279,
      "Ġprocessor": 6280,
      "Ġtemporal": 6281,
      "Ġbladder": 6282,
      "Ġcurrently": 6283,
      "Ġneither": 6284,
      "Ġdehydro": 6285,
      "Ġneurolog": 6286,
      "ij": 6287,
      "ughter": 6288,
      "Ġrace": 6289,
      "ĠRel": 6290,
      "Ġstroke": 6291,
      "Ġcortex": 6292,
      "ensin": 6293,
      "Ġtransistor": 6294,
      "Ġdelta": 6295,
      "ener": 6296,
      "Ġaspir": 6297,
      "Ġratios": 6298,
      "ĠRad": 6299,
      "Ġcompan": 6300,
      "Ġesc": 6301,
      "Ġconstraint": 6302,
      "Ġfet": 6303,
      "85": 6304,
      "Ġbile": 6305,
      "Ġphysicians": 6306,
      "Ġscience": 6307,
      "Ġrecommend": 6308,
      "Ġrule": 6309,
      "Ġgroove": 6310,
      "Ġadrenal": 6311,
      "Ġrhe": 6312,
      "iples": 6313,
      "Ġwaiting": 6314,
      "leen": 6315,
      "ĠKing": 6316,
      "Ġcreat": 6317,
      "ĠOb": 6318,
      "anged": 6319,
      "Ġcomputed": 6320,
      "Ġneutroph": 6321,
      "Ġ1985": 6322,
      "lish": 6323,
      "Ġarteries": 6324,
      "ounced": 6325,
      "Ġgiving": 6326,
      "Ġclock": 6327,
      "Ġincubation": 6328,
      "Ġwood": 6329,
      "Ġtransmitted": 6330,
      "arp": 6331,
      "Ġaccompan": 6332,
      "Ġmirror": 6333,
      "Ġbenefit": 6334,
      "Ġsubs": 6335,
      "Ġwish": 6336,
      "Ġinvolves": 6337,
      "ĠPR": 6338,
      "Ġdietary": 6339,
      "Ġreceiver": 6340,
      "Ġextremely": 6341,
      "Ġ@.": 6342,
      "Ġestimates": 6343,
      "mittee": 6344,
      "Ġteaching": 6345,
      "Ġrabbits": 6346,
      "Ġdepending": 6347,
      "Ġindirect": 6348,
      "oass": 6349,
      "Ġsudden": 6350,
      "Ġengage": 6351,
      "Ġcyclic": 6352,
      "ãĥ": 6353,
      "Ġaccordance": 6354,
      "Ġhypox": 6355,
      "ratic": 6356,
      "aden": 6357,
      "Ġdecreases": 6358,
      "Ġsteel": 6359,
      "Ġemphas": 6360,
      "Ġfilled": 6361,
      "Ġutilized": 6362,
      "Ġcentury": 6363,
      "ĠSal": 6364,
      "PH": 6365,
      "Ġpil": 6366,
      "romatic": 6367,
      "Ġreliable": 6368,
      "Ġsimply": 6369,
      "gluc": 6370,
      "Ġweb": 6371,
      "Ġmutations": 6372,
      "Ġadvantages": 6373,
      "Ġborn": 6374,
      "Ġvolunte": 6375,
      "enal": 6376,
      "ĠPol": 6377,
      "Ġhumans": 6378,
      "plasia": 6379,
      "ĠChild": 6380,
      "Ġadoles": 6381,
      "Ġdental": 6382,
      "unch": 6383,
      "rotid": 6384,
      "Ġthinking": 6385,
      "Ġschools": 6386,
      "Ġanat": 6387,
      "Ex": 6388,
      "room": 6389,
      "Ġalterations": 6390,
      "Ġhearing": 6391,
      "Ġimpair": 6392,
      "Ġcompare": 6393,
      "Ġintegral": 6394,
      "Ġmurine": 6395,
      "Ġren": 6396,
      "Ġcreated": 6397,
      "Ġgradient": 6398,
      "ĠCompar": 6399,
      "estic": 6400,
      "amental": 6401,
      "Ġhypoth": 6402,
      "Ġlever": 6403,
      "Ġblind": 6404,
      "rates": 6405,
      "Ġemission": 6406,
      "Ġcoding": 6407,
      "thern": 6408,
      "rospective": 6409,
      "ĠEffect": 6410,
      "Ġcompleted": 6411,
      "ĠDO": 6412,
      "Ġmarkers": 6413,
      "ptions": 6414,
      "ĠResearch": 6415,
      "ĠRef": 6416,
      "orthern": 6417,
      "itol": 6418,
      "ĠMult": 6419,
      "zyme": 6420,
      "axis": 6421,
      "Ġpassing": 6422,
      "SM": 6423,
      "ĠWestern": 6424,
      "Ñı": 6425,
      "Ġemot": 6426,
      "Ġspectral": 6427,
      "Ġradial": 6428,
      "Ġsten": 6429,
      "Ġbank": 6430,
      "piece": 6431,
      "Ġuter": 6432,
      "Ġlives": 6433,
      "Ġoxidation": 6434,
      "vert": 6435,
      "rehens": 6436,
      "Ġacetyl": 6437,
      "Ġglobal": 6438,
      "Ġdram": 6439,
      "Ġproperty": 6440,
      "ulus": 6441,
      "actic": 6442,
      "Ġderm": 6443,
      "Ġ{": 6444,
      "Ġendogenous": 6445,
      "Ġdynamics": 6446,
      "Ġpropag": 6447,
      "Ġaperture": 6448,
      "Ġphospholip": 6449,
      "ĠTake": 6450,
      "rary": 6451,
      "Ġmessage": 6452,
      "Ġcontribution": 6453,
      "range": 6454,
      "Ġnozzle": 6455,
      "55": 6456,
      "Ġarchitecture": 6457,
      "Ġbenefits": 6458,
      "Ġdisplacement": 6459,
      "imensions": 6460,
      "Ġlimits": 6461,
      "Ġsubstrates": 6462,
      "ENT": 6463,
      "inyl": 6464,
      "DR": 6465,
      "osity": 6466,
      "ĠAddition": 6467,
      "Ġfill": 6468,
      "Ġtip": 6469,
      "Ġactually": 6470,
      "Ġdefinition": 6471,
      "Ġsampling": 6472,
      "Ġdepends": 6473,
      "itals": 6474,
      "Ġadjustment": 6475,
      "Ġhit": 6476,
      "Ġextraction": 6477,
      "Ġprobability": 6478,
      "Ġsole": 6479,
      "Ġbiochemical": 6480,
      "Ġrefract": 6481,
      "Ġsuccessfully": 6482,
      "Ġpossibly": 6483,
      "ĠJan": 6484,
      "Ġhydraulic": 6485,
      "Ġinstead": 6486,
      "Ġcapital": 6487,
      "Ġeffectively": 6488,
      "ĠCell": 6489,
      "ĠHospital": 6490,
      "Ġdance": 6491,
      "47": 6492,
      "Ġinjuries": 6493,
      "Ġinitially": 6494,
      "Ġbillion": 6495,
      "Ġ300": 6496,
      "Ġcontacts": 6497,
      "Ġrecommended": 6498,
      "Ġmodulation": 6499,
      "Ġvein": 6500,
      "Ġfractions": 6501,
      "Ġcrystall": 6502,
      "rices": 6503,
      "ĠIS": 6504,
      "Ġsor": 6505,
      "CK": 6506,
      "____": 6507,
      "Ġexamples": 6508,
      "Ġmarker": 6509,
      "Ġwatch": 6510,
      "Ġgall": 6511,
      "mission": 6512,
      "Ġdysfunction": 6513,
      "Ġoperator": 6514,
      "Ġnons": 6515,
      "fort": 6516,
      "press": 6517,
      "Ġrelig": 6518,
      "Ġcompact": 6519,
      "Ġreturned": 6520,
      "isol": 6521,
      ".âĢĿ": 6522,
      "ĠÂł": 6523,
      "oustic": 6524,
      "asma": 6525,
      "Ġdefining": 6526,
      "Ġgenerate": 6527,
      "Ġscore": 6528,
      "Ġfinite": 6529,
      "ĠSee": 6530,
      "ato": 6531,
      "ercul": 6532,
      "Ġtolerance": 6533,
      "Ġultrason": 6534,
      "Ġtools": 6535,
      "Ġantis": 6536,
      "otypes": 6537,
      "Ġresidual": 6538,
      "oud": 6539,
      "Ġefforts": 6540,
      "pris": 6541,
      "gative": 6542,
      "Ġcup": 6543,
      "inate": 6544,
      "oys": 6545,
      "Ġisolation": 6546,
      "po": 6547,
      "ĠLove": 6548,
      "phosphate": 6549,
      "erves": 6550,
      "Ġphenomenon": 6551,
      "lock": 6552,
      "Ġreform": 6553,
      "Ġreadily": 6554,
      "Ġadverse": 6555,
      "ori": 6556,
      "Ñĭ": 6557,
      "Ġhr": 6558,
      "Ġdatab": 6559,
      "zen": 6560,
      "Ġrepresentation": 6561,
      "Ġbarrier": 6562,
      "Ġshaped": 6563,
      "Ġsatisf": 6564,
      "ette": 6565,
      "Ġchair": 6566,
      "Ġconsecutive": 6567,
      "Ġcircumf": 6568,
      "BM": 6569,
      "ĠRES": 6570,
      "hold": 6571,
      "ĠDav": 6572,
      "isl": 6573,
      "Ġdetailed": 6574,
      "Ġlocalized": 6575,
      "actin": 6576,
      "ĠHLA": 6577,
      "Ġconveyor": 6578,
      "ĠTest": 6579,
      "Ġminute": 6580,
      "Ġprice": 6581,
      "Ġblocks": 6582,
      "Ġbab": 6583,
      "Ġguid": 6584,
      "Ġspray": 6585,
      "Ġod": 6586,
      "rew": 6587,
      "Ġrecovered": 6588,
      "Ġ39": 6589,
      "Ġtruth": 6590,
      "Ġleaders": 6591,
      "Ġprecip": 6592,
      "yr": 6593,
      "lin": 6594,
      "do": 6595,
      "ifications": 6596,
      "ball": 6597,
      "Ġcasing": 6598,
      "Ġsensing": 6599,
      "face": 6600,
      "ĠEnglish": 6601,
      "Ġintr": 6602,
      "Ġfusion": 6603,
      "ara": 6604,
      "à¤": 6605,
      "Ġfault": 6606,
      "ĠFollow": 6607,
      "Ġactions": 6608,
      "Ġamplifier": 6609,
      "ashion": 6610,
      "57": 6611,
      "Ġreactive": 6612,
      "Ġmedian": 6613,
      "Ġdro": 6614,
      "Ġlinked": 6615,
      "ĠSov": 6616,
      "Ph": 6617,
      "Ġconcern": 6618,
      "Ġ\"\"": 6619,
      "la": 6620,
      "ĠGa": 6621,
      "Ġestimation": 6622,
      "edu": 6623,
      "Ġiso": 6624,
      "irt": 6625,
      "Ġhosp": 6626,
      "Ġmothers": 6627,
      "Ġplease": 6628,
      "requency": 6629,
      "Ġasc": 6630,
      "53": 6631,
      "rob": 6632,
      "Ġzinc": 6633,
      "49": 6634,
      "Ġnation": 6635,
      "Ġpert": 6636,
      "Ġdecomp": 6637,
      "Ġnews": 6638,
      "orts": 6639,
      "42": 6640,
      "arn": 6641,
      "ilibrium": 6642,
      "Ġprogressive": 6643,
      "Ġmedicine": 6644,
      "ivil": 6645,
      "Ġrelaxation": 6646,
      "aryn": 6647,
      "Ġpeace": 6648,
      "olol": 6649,
      "Ġpermits": 6650,
      "Ġcurves": 6651,
      "Ġstandards": 6652,
      "56": 6653,
      "Ġyourself": 6654,
      "Ġthreat": 6655,
      "idate": 6656,
      "Ġdimensions": 6657,
      "Ġperp": 6658,
      "Ġslide": 6659,
      "Effects": 6660,
      "ryst": 6661,
      "associated": 6662,
      "Ġdeposition": 6663,
      "Ġeconomy": 6664,
      "SI": 6665,
      "Ġperox": 6666,
      "Ġdrawn": 6667,
      "Ġstock": 6668,
      "Ġexperienced": 6669,
      "Ġlearn": 6670,
      "Ġlik": 6671,
      "Ġepiderm": 6672,
      "rolled": 6673,
      "Ġhemorrh": 6674,
      "Ġprevented": 6675,
      "Ġunus": 6676,
      "ĠCaliforn": 6677,
      "Ġreserv": 6678,
      "ĠCR": 6679,
      "Ġvision": 6680,
      "sol": 6681,
      "Ġconflic": 6682,
      "Ġfly": 6683,
      "Ġnodes": 6684,
      "Ġsubsequently": 6685,
      "Ġsick": 6686,
      "agland": 6687,
      "Ġcontinuously": 6688,
      "Ġaw": 6689,
      "Ġrotary": 6690,
      "ky": 6691,
      "Ġsymb": 6692,
      "Ġanx": 6693,
      "Ġholes": 6694,
      "rous": 6695,
      "Ġclos": 6696,
      "Ġcategor": 6697,
      "Ġ46": 6698,
      "Ġpotassium": 6699,
      "ignific": 6700,
      "lease": 6701,
      "after": 6702,
      "urally": 6703,
      "Ġaccompanied": 6704,
      "Ġexplan": 6705,
      "rif": 6706,
      "Ġpermanent": 6707,
      "Ġlum": 6708,
      "Ġhappened": 6709,
      "Ġresil": 6710,
      "Ġloading": 6711,
      "ingly": 6712,
      "hyde": 6713,
      "eric": 6714,
      "Ġpad": 6715,
      "olecular": 6716,
      "Ġrecurrent": 6717,
      "Ġtiming": 6718,
      "Ġlegs": 6719,
      "Ġguinea": 6720,
      "Ġintroduction": 6721,
      "Ġspleen": 6722,
      "Ġadhesive": 6723,
      "Ġtubes": 6724,
      "Ġtreating": 6725,
      "Ġstudent": 6726,
      "Ġtelephone": 6727,
      "ĠAust": 6728,
      "enty": 6729,
      "omon": 6730,
      "Ġfif": 6731,
      "opic": 6732,
      "osynt": 6733,
      "Ġnecrosis": 6734,
      "Ġpresentation": 6735,
      "imental": 6736,
      "Ġlibr": 6737,
      "Ġreliability": 6738,
      "Ġangular": 6739,
      "ĠJapanese": 6740,
      "Ġdate": 6741,
      "inese": 6742,
      "Ġcovered": 6743,
      "Ġgoal": 6744,
      "psin": 6745,
      "Ġsup": 6746,
      "Ġplug": 6747,
      "Ġempt": 6748,
      "aret": 6749,
      "ophageal": 6750,
      "Ġbuffer": 6751,
      "water": 6752,
      "dehyde": 6753,
      "Ġundert": 6754,
      "Ġmixing": 6755,
      "Ġgreatly": 6756,
      "Ġmutation": 6757,
      "bra": 6758,
      "Ġinterpretation": 6759,
      "iant": 6760,
      "Ġattract": 6761,
      "Ġrail": 6762,
      "bert": 6763,
      "Ġ44": 6764,
      "Ġelast": 6765,
      "Ġalbumin": 6766,
      "Ġcongen": 6767,
      "Ġmeaning": 6768,
      "clerosis": 6769,
      "Ġnuclei": 6770,
      "Ġchains": 6771,
      "Ġreflected": 6772,
      "Ġconjug": 6773,
      "Ġdielectric": 6774,
      "ificial": 6775,
      "ĠAh": 6776,
      "stituted": 6777,
      "fusion": 6778,
      "Ġimpl": 6779,
      "rays": 6780,
      "Ġdiscrete": 6781,
      "ĠImmun": 6782,
      "But": 6783,
      "ĠStudy": 6784,
      "uses": 6785,
      "Ġthous": 6786,
      "Ġrecords": 6787,
      "yc": 6788,
      "Ġice": 6789,
      "onate": 6790,
      "Ġwife": 6791,
      "Ġglomer": 6792,
      "Ġbeaut": 6793,
      ",\"": 6794,
      "Ġsulfate": 6795,
      "Ġconform": 6796,
      "Ġfoll": 6797,
      "ĠCalifornia": 6798,
      "Ġtomography": 6799,
      "Ġprofessional": 6800,
      "ĠIntern": 6801,
      "Ġskills": 6802,
      "Ġholder": 6803,
      "Ġprognosis": 6804,
      "Ġaccommod": 6805,
      "ĠBased": 6806,
      "ionic": 6807,
      "Ġlearned": 6808,
      "Ġmention": 6809,
      "Ġdispens": 6810,
      "Ġpolice": 6811,
      "Ġdeform": 6812,
      "Ġads": 6813,
      "Ġgal": 6814,
      "ipped": 6815,
      "Ġdimin": 6816,
      "uter": 6817,
      "ĠGeneral": 6818,
      "Ġ*": 6819,
      "Ġwriting": 6820,
      "ructural": 6821,
      "Ġimmunoglob": 6822,
      "Ġfibrin": 6823,
      "Ġsold": 6824,
      "ĠSa": 6825,
      "ĠServ": 6826,
      "Ġvill": 6827,
      "ragm": 6828,
      "Ġcirculation": 6829,
      "otal": 6830,
      "prop": 6831,
      "Ġnative": 6832,
      "Ġnewborn": 6833,
      "Ġsilver": 6834,
      "Ġdimension": 6835,
      "Ġguess": 6836,
      "02": 6837,
      "cribed": 6838,
      "Ġpressures": 6839,
      "Ġexhibit": 6840,
      "Ġfinally": 6841,
      "ĠTreatment": 6842,
      "Ġbypass": 6843,
      "Ġadaptive": 6844,
      "Ġranging": 6845,
      "Ġwo": 6846,
      "Ġexert": 6847,
      "ĠPC": 6848,
      "Ġatrial": 6849,
      "Ġammon": 6850,
      "ĠÎ±": 6851,
      "ohyd": 6852,
      "Ġdri": 6853,
      "ĠCA": 6854,
      "Ġlies": 6855,
      "Ġinoc": 6856,
      "Ġbird": 6857,
      "Ġquestionna": 6858,
      "uty": 6859,
      "icide": 6860,
      "oves": 6861,
      "ovirus": 6862,
      "bound": 6863,
      "Ġunf": 6864,
      "cor": 6865,
      "Ġpool": 6866,
      "Ġresection": 6867,
      "ends": 6868,
      "Ġlocalization": 6869,
      "PC": 6870,
      "Ġmodification": 6871,
      "TO": 6872,
      "Ġquickly": 6873,
      "Ġlymphocyte": 6874,
      "ains": 6875,
      "Ġimmediate": 6876,
      "Ġepidem": 6877,
      "Ġoption": 6878,
      "Ġker": 6879,
      "Ġreconstruction": 6880,
      "Ġmanufacturing": 6881,
      "Ġbuilt": 6882,
      "intestinal": 6883,
      "Ġcreate": 6884,
      "Ġperfusion": 6885,
      "Ġcontents": 6886,
      "78": 6887,
      "wing": 6888,
      "Ġrough": 6889,
      "Ġleaves": 6890,
      "Ġfollows": 6891,
      "Ġrestriction": 6892,
      "Ġobvious": 6893,
      "Ġglycoprotein": 6894,
      "oglyc": 6895,
      "Ġlipoprotein": 6896,
      "Ġphases": 6897,
      "Ġpolymorph": 6898,
      "choline": 6899,
      "ĠControl": 6900,
      "ancial": 6901,
      "Ġgrade": 6902,
      "DM": 6903,
      "Ġepithelium": 6904,
      "Ġtail": 6905,
      "Ġpackage": 6906,
      "ducer": 6907,
      "aphyl": 6908,
      "rasound": 6909,
      "Ġenvelop": 6910,
      "Ġwet": 6911,
      "iction": 6912,
      "anned": 6913,
      "Ġprofiles": 6914,
      "ceived": 6915,
      "Ġdoll": 6916,
      "leukin": 6917,
      "Ġenhancement": 6918,
      "ĠIC": 6919,
      "Ġdanger": 6920,
      "onomic": 6921,
      "Ġtheres": 6922,
      "Ġfool": 6923,
      "ĠRepublic": 6924,
      "ĠWhite": 6925,
      "Ġpituitary": 6926,
      "fficients": 6927,
      "Ġstreet": 6928,
      "ficiency": 6929,
      "Ġmodes": 6930,
      "rene": 6931,
      "Ġstationary": 6932,
      "utch": 6933,
      "Ġmutants": 6934,
      "TER": 6935,
      "âģ": 6936,
      "Ġwarm": 6937,
      "Ġheated": 6938,
      "itory": 6939,
      "Ġstere": 6940,
      "Ġprotocol": 6941,
      "gans": 6942,
      "Ġ1984": 6943,
      "ĠSoviet": 6944,
      "Ġnumerical": 6945,
      "Ġelectrophoresis": 6946,
      "ĠIFN": 6947,
      "imal": 6948,
      "Ġfundamental": 6949,
      "Ġinfluenced": 6950,
      "Ġstret": 6951,
      "Ġteachers": 6952,
      "Ġ72": 6953,
      "Ġassays": 6954,
      "ĠCF": 6955,
      "Ġresponsive": 6956,
      "ager": 6957,
      "Ġlamp": 6958,
      "Ġpreced": 6959,
      "Ġpreventing": 6960,
      "gamma": 6961,
      "Ġimplemented": 6962,
      "Ġtrain": 6963,
      "ĠDet": 6964,
      "Ġaf": 6965,
      "Ġpotentials": 6966,
      "Ġpowder": 6967,
      "76": 6968,
      "Ġinvestigations": 6969,
      "Ġshield": 6970,
      "Ġregulatory": 6971,
      "Ġdisplayed": 6972,
      "idyl": 6973,
      "Ġacquired": 6974,
      "ohist": 6975,
      "Ġaxially": 6976,
      "mol": 6977,
      "Ġasympt": 6978,
      "Ġcompartment": 6979,
      "ading": 6980,
      "Ġfashion": 6981,
      "ocrine": 6982,
      "Ġcred": 6983,
      "ĠSol": 6984,
      "Ġmeeting": 6985,
      "aluation": 6986,
      "Ġtrauma": 6987,
      "ĠDop": 6988,
      "Ġsummer": 6989,
      "Ġmast": 6990,
      "Ġguy": 6991,
      "Ġlargely": 6992,
      "ĠMark": 6993,
      "Ġprinting": 6994,
      "Ġtap": 6995,
      "Ġperfect": 6996,
      "Ġplasmid": 6997,
      "rared": 6998,
      "inephrine": 6999,
      "Ġconduit": 7000,
      "angular": 7001,
      "ita": 7002,
      "earing": 7003,
      "Ġmaintaining": 7004,
      "Ġengaging": 7005,
      "Ġlose": 7006,
      "ferase": 7007,
      "Ġbias": 7008,
      "cm": 7009,
      "arcin": 7010,
      "Ġprel": 7011,
      "comp": 7012,
      "Ġhospitals": 7013,
      "PD": 7014,
      "resistant": 7015,
      "Ġmature": 7016,
      "ĠBro": 7017,
      "rowth": 7018,
      "Ġsell": 7019,
      "Ġsuppression": 7020,
      "Ġapparently": 7021,
      "Ġrheum": 7022,
      "ĠChinese": 7023,
      "Ġretard": 7024,
      "Ġbleeding": 7025,
      "ylated": 7026,
      "Ġblow": 7027,
      "ĠSum": 7028,
      "Ġcos": 7029,
      "Ġresilient": 7030,
      "ĠBi": 7031,
      "Ġsympat": 7032,
      "Ġmorb": 7033,
      "Ġrights": 7034,
      "Ġlooks": 7035,
      "Ġpregnant": 7036,
      "Ġaluminum": 7037,
      "aste": 7038,
      "engths": 7039,
      "Ġsecurity": 7040,
      "ĠLH": 7041,
      "ĠRight": 7042,
      "rophic": 7043,
      "Ġfirm": 7044,
      "ophys": 7045,
      "Ġfaces": 7046,
      "Ġmigration": 7047,
      "Ġdetectable": 7048,
      "ylase": 7049,
      "ĠSpec": 7050,
      "Ġimmunore": 7051,
      "Ġdiaph": 7052,
      "roscopic": 7053,
      "Ġlegal": 7054,
      "Ġischemia": 7055,
      "Ġthereon": 7056,
      "Ġinfilt": 7057,
      "ructive": 7058,
      "ĠTra": 7059,
      "Ġopposed": 7060,
      "Ġboundary": 7061,
      "Ġ150": 7062,
      "ochrome": 7063,
      "Ġsynthesized": 7064,
      "eal": 7065,
      "ĠGre": 7066,
      "Ġopened": 7067,
      "uli": 7068,
      "edom": 7069,
      "otoxin": 7070,
      "ĠCongress": 7071,
      "Ġfinger": 7072,
      "Int": 7073,
      "ĠBaby": 7074,
      "Ġcognitive": 7075,
      "Pro": 7076,
      "Ġneonatal": 7077,
      "empor": 7078,
      "Ġarthritis": 7079,
      "ĠOK": 7080,
      "Ġdecline": 7081,
      "Ġcommand": 7082,
      "Ġnote": 7083,
      "Ġgotta": 7084,
      "Ġpolymerase": 7085,
      "Ġintegration": 7086,
      "ĠHuman": 7087,
      "Ġkinetics": 7088,
      "Ġdust": 7089,
      "ĠPost": 7090,
      "itored": 7091,
      "79": 7092,
      "sil": 7093,
      "hydrox": 7094,
      "Ġmovements": 7095,
      "Ġincorporation": 7096,
      "aque": 7097,
      "Ġbrake": 7098,
      "Ġsperm": 7099,
      "Ġstanding": 7100,
      "ĠHa": 7101,
      "-,": 7102,
      "Ġwants": 7103,
      "Ġinfect": 7104,
      "Ġanomal": 7105,
      "ĠBlack": 7106,
      "otomy": 7107,
      "Ġdye": 7108,
      "Ġcoefficients": 7109,
      "Ġprogramming": 7110,
      "ĠDid": 7111,
      "lands": 7112,
      "Ġgrain": 7113,
      "Ġconsult": 7114,
      "Ġswit": 7115,
      "Ġspent": 7116,
      "nic": 7117,
      "Ġinterference": 7118,
      "utional": 7119,
      "âģŁ": 7120,
      "Ġreservoir": 7121,
      "Ġunivers": 7122,
      "ĠIsra": 7123,
      "Ġcardiovascular": 7124,
      "Ġleak": 7125,
      "Ġkilled": 7126,
      "Ġhook": 7127,
      "Ġplatform": 7128,
      "Ġclones": 7129,
      "Ġtelevision": 7130,
      "Ġanaest": 7131,
      "Ġsubunit": 7132,
      "ancies": 7133,
      "ĠAfrican": 7134,
      "rane": 7135,
      "benz": 7136,
      "oassay": 7137,
      "stimulated": 7138,
      "Ġcondens": 7139,
      "ĠAnother": 7140,
      "Ġfourth": 7141,
      "Ġphenyl": 7142,
      "Ġantagonist": 7143,
      "Ġbright": 7144,
      "Ġfibroblasts": 7145,
      "ĠJu": 7146,
      "clusions": 7147,
      "Ġtechnical": 7148,
      "GH": 7149,
      "Ġusers": 7150,
      "ĠDA": 7151,
      "Ġextracts": 7152,
      "Ġpsychiatric": 7153,
      "ellar": 7154,
      "Ġanalysed": 7155,
      "Ġbattery": 7156,
      "ĠSecret": 7157,
      "Ġillumin": 7158,
      "oxin": 7159,
      "Ġinactiv": 7160,
      "onuclear": 7161,
      "ĠMet": 7162,
      "Ġcirculating": 7163,
      "Ġthereto": 7164,
      "vascular": 7165,
      "Ġfol": 7166,
      "iotensin": 7167,
      "Ġsheep": 7168,
      "Ġrequest": 7169,
      "Ġpigs": 7170,
      "HC": 7171,
      "Ġsky": 7172,
      "Ġpron": 7173,
      "Ġmoves": 7174,
      "Ġsuspension": 7175,
      "inet": 7176,
      "Ġetc": 7177,
      "ĠSimilar": 7178,
      "Ġmonitored": 7179,
      "Ġdonor": 7180,
      "ervative": 7181,
      "oside": 7182,
      "Ġdiver": 7183,
      "Ġpas": 7184,
      "Ġranged": 7185,
      "Ġfacilitate": 7186,
      "Ġutilizing": 7187,
      "Ġbenign": 7188,
      "ĠCP": 7189,
      "],": 7190,
      "lim": 7191,
      "Ġrepresenting": 7192,
      "rating": 7193,
      "Ġbands": 7194,
      "ĠUp": 7195,
      "Ġ43": 7196,
      "ignificant": 7197,
      "Ġdecisions": 7198,
      "Ġpieces": 7199,
      "ĠEp": 7200,
      "ĠFive": 7201,
      "apter": 7202,
      "Ġpare": 7203,
      "Ġuncertain": 7204,
      "Ġexists": 7205,
      "Ġcir": 7206,
      "Ġdual": 7207,
      "ilos": 7208,
      "Ġhappy": 7209,
      "arcoma": 7210,
      "Ġcourt": 7211,
      "ĠMg": 7212,
      "Ġrid": 7213,
      "Ġinteresting": 7214,
      "Ġdehydrogenase": 7215,
      "Ġskeletal": 7216,
      "Ġnucleotide": 7217,
      "Ġensure": 7218,
      "iled": 7219,
      "Ġbuy": 7220,
      "Ġprinciples": 7221,
      "Ġseason": 7222,
      "ĠMich": 7223,
      "iral": 7224,
      "Ġhepar": 7225,
      "ĠDC": 7226,
      "Ġsheets": 7227,
      "Ġelectroly": 7228,
      "Ġfigure": 7229,
      "Ġ41": 7230,
      "88": 7231,
      "Ġhypertensive": 7232,
      "Ġdip": 7233,
      "Ġaux": 7234,
      "Ġterminals": 7235,
      "Ġrestricted": 7236,
      "enth": 7237,
      "Ġtasks": 7238,
      "iotics": 7239,
      "Ġ125": 7240,
      "negative": 7241,
      "Ġdirections": 7242,
      "Ġblocked": 7243,
      "Ġrandomized": 7244,
      "Ġansw": 7245,
      "anal": 7246,
      "Ġmist": 7247,
      "Ġprincipal": 7248,
      "ĠCour": 7249,
      "Ġrich": 7250,
      "veolar": 7251,
      "Ġalkaline": 7252,
      "43": 7253,
      "ĠBo": 7254,
      "Ġnur": 7255,
      "Ġremark": 7256,
      "Ġparad": 7257,
      "Ġexclud": 7258,
      "Ġprove": 7259,
      "ĠInf": 7260,
      "Ġconcepts": 7261,
      "Ġhing": 7262,
      "ether": 7263,
      "Ġevident": 7264,
      "Ġconsisted": 7265,
      "ondon": 7266,
      "uary": 7267,
      "isition": 7268,
      "Ġpathogenesis": 7269,
      "EF": 7270,
      "Ġaz": 7271,
      "otes": 7272,
      "cket": 7273,
      "Ġshot": 7274,
      "ĠClinical": 7275,
      "rained": 7276,
      "Ġgreatest": 7277,
      "Ġmucosa": 7278,
      "Ġimmunos": 7279,
      "Ġimpaired": 7280,
      "Ġcomprehens": 7281,
      "ĠJes": 7282,
      "uge": 7283,
      "Ġcalculations": 7284,
      "USION": 7285,
      "ĠAB": 7286,
      "ĠInstit": 7287,
      "Ġcytos": 7288,
      "Ġdin": 7289,
      "Ġyes": 7290,
      "Ġelic": 7291,
      "Ġmaybe": 7292,
      "ĠDespite": 7293,
      "Ġanten": 7294,
      "Ġ1993": 7295,
      "Ġdeaths": 7296,
      "Ġemergency": 7297,
      "Ġinver": 7298,
      "Ġfurn": 7299,
      "Ġcomparing": 7300,
      "Ġmap": 7301,
      "Ġweld": 7302,
      "IF": 7303,
      "Ġgrav": 7304,
      "ilized": 7305,
      "Ġchalleng": 7306,
      "ethylene": 7307,
      "Ġaug": 7308,
      "Ġconstitu": 7309,
      "col": 7310,
      "Ġsubstances": 7311,
      "Ġbaseline": 7312,
      "acer": 7313,
      "Ġeconom": 7314,
      "Ġcomparative": 7315,
      "Ġlith": 7316,
      "Ġfalse": 7317,
      "Ġencoding": 7318,
      "Ġenable": 7319,
      "Ġclassical": 7320,
      "Ġrecurrence": 7321,
      "Ġwrite": 7322,
      "plete": 7323,
      "Ġadjustable": 7324,
      "Ġho": 7325,
      "ously": 7326,
      "ĠDist": 7327,
      "Ġmanufacture": 7328,
      "Ġencl": 7329,
      "rust": 7330,
      "Ġpolicies": 7331,
      "Ġyo": 7332,
      "ĠStudies": 7333,
      "Ġpet": 7334,
      "77": 7335,
      "Ġcopy": 7336,
      "ensities": 7337,
      "Ġvisc": 7338,
      "Ġantibiotic": 7339,
      "Ġpartition": 7340,
      "Ġrotatable": 7341,
      "Ġretic": 7342,
      "ulates": 7343,
      "ĠPress": 7344,
      "ĠAfrica": 7345,
      "anc": 7346,
      "Ġextr": 7347,
      "conduct": 7348,
      "Ġquad": 7349,
      "66": 7350,
      "Ġdegen": 7351,
      "atever": 7352,
      "Ġhybridization": 7353,
      "Ġcompanies": 7354,
      "Ġ1983": 7355,
      "Ġlymphoma": 7356,
      "Ġimmunode": 7357,
      "Ġincorporated": 7358,
      "Ġflange": 7359,
      "romet": 7360,
      "rosine": 7361,
      "Ġ1982": 7362,
      "Ġopenings": 7363,
      "ossible": 7364,
      "Ġundergoing": 7365,
      "Ġwithdraw": 7366,
      "Ġcig": 7367,
      "Ġentry": 7368,
      "ĠEast": 7369,
      "Ġmodule": 7370,
      "Ġeducational": 7371,
      "SV": 7372,
      "Ġreplication": 7373,
      "Ġbilateral": 7374,
      "ĠMex": 7375,
      "stolic": 7376,
      "ĠTime": 7377,
      "ĠCity": 7378,
      "lux": 7379,
      "Ġchosen": 7380,
      "Ġimped": 7381,
      "Ġwed": 7382,
      "Ġadhesion": 7383,
      "CLUSION": 7384,
      "Ġpropose": 7385,
      "Ġradially": 7386,
      "Ġlabeled": 7387,
      "formance": 7388,
      "Ġhydroph": 7389,
      "ĠThats": 7390,
      "Ġobstruction": 7391,
      "Ġsquare": 7392,
      "ocardi": 7393,
      "HA": 7394,
      "Ġlocations": 7395,
      "oelectric": 7396,
      "Ġfilt": 7397,
      "Ġquantity": 7398,
      "Ġsaline": 7399,
      "luores": 7400,
      "Ġurban": 7401,
      "SS": 7402,
      "Ġorgans": 7403,
      "Ġcounts": 7404,
      "Ġgram": 7405,
      "Ġbath": 7406,
      "×Ķ": 7407,
      "92": 7408,
      "Ġconsequences": 7409,
      "Ġintended": 7410,
      "Ġom": 7411,
      "Ġhang": 7412,
      "ĠÑģ": 7413,
      "Ġpus": 7414,
      "Ġvolunteers": 7415,
      "Ġoffers": 7416,
      "Ġscientific": 7417,
      "Ġapprec": 7418,
      "Ġpaid": 7419,
      "Ġfederal": 7420,
      "ĠVari": 7421,
      "Ġspectroscopy": 7422,
      "ishes": 7423,
      "Ġshoulder": 7424,
      "endicular": 7425,
      "Ġpreliminary": 7426,
      "Ġopportunity": 7427,
      "Ġpneumonia": 7428,
      "Ġspot": 7429,
      "Ġanalyt": 7430,
      "ĠCONCLUSION": 7431,
      "ĠSan": 7432,
      "Ġ56": 7433,
      "Ġslowly": 7434,
      "Ġabuse": 7435,
      "Ġgets": 7436,
      "Ġbear": 7437,
      "Ġphoto": 7438,
      "Ġopin": 7439,
      "va": 7440,
      "Ġdim": 7441,
      "itus": 7442,
      "Ġnumerous": 7443,
      "bral": 7444,
      "Ġengaged": 7445,
      "Ġstimulus": 7446,
      "iph": 7447,
      "well": 7448,
      "ricult": 7449,
      "Ġverte": 7450,
      "Ġwear": 7451,
      "umor": 7452,
      "oscopic": 7453,
      "omach": 7454,
      "ocarcin": 7455,
      "Ġreduces": 7456,
      "Ġacceptable": 7457,
      "action": 7458,
      "Verse": 7459,
      "ĠÎ²": 7460,
      "ulsion": 7461,
      "etra": 7462,
      "aria": 7463,
      "Ġanch": 7464,
      "wid": 7465,
      "otor": 7466,
      "Ġworth": 7467,
      "Ġsusceptibility": 7468,
      "Ġcis": 7469,
      "Ġ85": 7470,
      "Ġmorphology": 7471,
      "Ġkiss": 7472,
      "41": 7473,
      "nat": 7474,
      "ĠEight": 7475,
      "Ġremoving": 7476,
      "Ġadmitted": 7477,
      "ospor": 7478,
      "Ġfluct": 7479,
      "Ġunch": 7480,
      "Ġpsychological": 7481,
      "Ġfever": 7482,
      "Ġprostagland": 7483,
      "Ġphysician": 7484,
      "Ġmaster": 7485,
      "je": 7486,
      "dose": 7487,
      "Ġbil": 7488,
      "Ġfilters": 7489,
      "Ġfinancial": 7490,
      "apa": 7491,
      "urgical": 7492,
      "Ġocclusion": 7493,
      "ocon": 7494,
      "othing": 7495,
      "Ġrural": 7496,
      "Ġunusual": 7497,
      "airs": 7498,
      "AG": 7499,
      "ensitivity": 7500,
      "asm": 7501,
      "ĠGH": 7502,
      "Ġretrospective": 7503,
      "Ġtubercul": 7504,
      "natal": 7505,
      "ĠMo": 7506,
      "ĠCenter": 7507,
      "Ġarrest": 7508,
      "Ġgases": 7509,
      "Ġassigned": 7510,
      "Ġsched": 7511,
      "Ġquantum": 7512,
      "Ġplaying": 7513,
      "Ġalignment": 7514,
      "OP": 7515,
      "aint": 7516,
      "ologists": 7517,
      "through": 7518,
      "hex": 7519,
      "encing": 7520,
      "Ġoffic": 7521,
      "derived": 7522,
      "RY": 7523,
      "aptic": 7524,
      "Ġcoated": 7525,
      "Ġmorbidity": 7526,
      "Ġsad": 7527,
      "Ġotherwise": 7528,
      "EV": 7529,
      "Ġitems": 7530,
      "ĠMus": 7531,
      "Ġprofession": 7532,
      "ĠAM": 7533,
      "LV": 7534,
      "ĠAny": 7535,
      "Ġdominant": 7536,
      "Ġutilization": 7537,
      "adi": 7538,
      "Ġpanels": 7539,
      "Ġemphasis": 7540,
      "On": 7541,
      "ĠSecond": 7542,
      "Ġleaving": 7543,
      "Ġovarian": 7544,
      "Ġderivative": 7545,
      "ĠHB": 7546,
      "Ġkids": 7547,
      "Ġacting": 7548,
      "Ġcytok": 7549,
      "Ġcontra": 7550,
      "Ġreflection": 7551,
      "CF": 7552,
      "Ġclar": 7553,
      "Ġpretty": 7554,
      "Ġtranscript": 7555,
      "ĠWere": 7556,
      "ULTS": 7557,
      "nes": 7558,
      "Ġhey": 7559,
      "iful": 7560,
      "Ġ%": 7561,
      "Ġinsulating": 7562,
      "Ġphosphorylation": 7563,
      "Ġ47": 7564,
      "Ġconcerns": 7565,
      "Ġconv": 7566,
      "Ġram": 7567,
      "Ġwavelength": 7568,
      "Ġmineral": 7569,
      "eurys": 7570,
      "Ġdoubt": 7571,
      "Ġrose": 7572,
      "Ġrend": 7573,
      "ĠTV": 7574,
      "Ġcab": 7575,
      "aments": 7576,
      "Ġventric": 7577,
      "imp": 7578,
      "Ġindicator": 7579,
      "ril": 7580,
      "Ġprinciple": 7581,
      "heless": 7582,
      "ivered": 7583,
      "ĠÐ½": 7584,
      "Ġclassified": 7585,
      "Ġlocus": 7586,
      "isons": 7587,
      "rick": 7588,
      "Ġtorque": 7589,
      "Ġoffered": 7590,
      "icks": 7591,
      ",âĢĿ": 7592,
      "Ġdevelopmental": 7593,
      "Ġcongenital": 7594,
      "Ġplatelets": 7595,
      "ĠTechn": 7596,
      "ĠEnd": 7597,
      "Ġmorphological": 7598,
      "Ġreferred": 7599,
      "Ġprojection": 7600,
      "rox": 7601,
      "ĠRESULTS": 7602,
      "Ġ120": 7603,
      "Ġstru": 7604,
      "Ġultrasound": 7605,
      "Ġacoustic": 7606,
      "Ġplays": 7607,
      "Ġtransducer": 7608,
      "Ġintellig": 7609,
      "Ġinitiation": 7610,
      "Ġchildhood": 7611,
      "Ġmetabolites": 7612,
      "Ġhistological": 7613,
      "eren": 7614,
      "OW": 7615,
      "ĠLondon": 7616,
      "Ġtetra": 7617,
      "Ġnewly": 7618,
      "Ġimmunodeficiency": 7619,
      "Î¹": 7620,
      "ocaine": 7621,
      "ka": 7622,
      "Ġsecure": 7623,
      "Ġtrees": 7624,
      "ride": 7625,
      "hr": 7626,
      "Ġforced": 7627,
      "wards": 7628,
      "Ġfarm": 7629,
      "Ġhearts": 7630,
      "umes": 7631,
      "Ġ1981": 7632,
      "ĠUV": 7633,
      "OT": 7634,
      "Ġpuls": 7635,
      "Ġaort": 7636,
      "Ġplayed": 7637,
      "Ġbranch": 7638,
      "ogeneity": 7639,
      "Ġexpert": 7640,
      "ĠFrench": 7641,
      "Ġretention": 7642,
      "ĠDoppler": 7643,
      "acle": 7644,
      "ĠJack": 7645,
      "ĠEL": 7646,
      "Ġartificial": 7647,
      "Ġperpendicular": 7648,
      "Ġplanar": 7649,
      "cast": 7650,
      "Ġcomplexity": 7651,
      "UM": 7652,
      "ĠTell": 7653,
      "ibilities": 7654,
      "een": 7655,
      "ĠAug": 7656,
      "yd": 7657,
      "ĠMiss": 7658,
      "Ġamor": 7659,
      "Ġmetastases": 7660,
      "ĠMal": 7661,
      "cephal": 7662,
      "Ġinsu": 7663,
      "ĠKn": 7664,
      "Ġworked": 7665,
      "Ġleaf": 7666,
      "Ġneoplas": 7667,
      "Ġconductor": 7668,
      "Ġlegisl": 7669,
      "iler": 7670,
      "regn": 7671,
      "rep": 7672,
      "Ġfocal": 7673,
      "86": 7674,
      "antic": 7675,
      "Ġassumed": 7676,
      "Ġcomprised": 7677,
      "standing": 7678,
      "Ġ52": 7679,
      "insic": 7680,
      "Ġborder": 7681,
      "Ġbulk": 7682,
      "PR": 7683,
      "max": 7684,
      "ĠExp": 7685,
      "Ġvalu": 7686,
      "+,": 7687,
      "Ġcortical": 7688,
      "ĠMedical": 7689,
      "BS": 7690,
      "Ġshoot": 7691,
      "Ġreactivity": 7692,
      "Ġprinted": 7693,
      "Ġlimb": 7694,
      "Ġresidue": 7695,
      "luor": 7696,
      "inton": 7697,
      "Ġcarotid": 7698,
      "ĠAD": 7699,
      "accharide": 7700,
      "rost": 7701,
      "Ġequilibrium": 7702,
      "Ġfacing": 7703,
      "Ġtone": 7704,
      "Ġalive": 7705,
      "Ġalloy": 7706,
      "Ġmultip": 7707,
      "Ġages": 7708,
      "Ġcortic": 7709,
      "Ġsulph": 7710,
      "Ġrepeat": 7711,
      "Ġstring": 7712,
      "infected": 7713,
      "Ġlisten": 7714,
      "Ġstyle": 7715,
      "Ġaneurys": 7716,
      "mentation": 7717,
      "ĠÂłĠÂł": 7718,
      "91": 7719,
      "Ġtransferred": 7720,
      "Ġacts": 7721,
      "aemia": 7722,
      "esium": 7723,
      "utive": 7724,
      "Ġvul": 7725,
      "Ġinverse": 7726,
      "cessor": 7727,
      "Ġunc": 7728,
      "Ġcris": 7729,
      "Ġventilation": 7730,
      "Ø§": 7731,
      "Ġcarcinomas": 7732,
      "urable": 7733,
      "ĠBlood": 7734,
      "Ġcovering": 7735,
      "Ġschiz": 7736,
      "Ġgastrointestinal": 7737,
      "icillin": 7738,
      "Ġinterferon": 7739,
      "rations": 7740,
      "apping": 7741,
      "Ġaver": 7742,
      "Ġseiz": 7743,
      "Ġpurposes": 7744,
      "Ġtrip": 7745,
      "igm": 7746,
      "Ġusual": 7747,
      "ophren": 7748,
      "ixed": 7749,
      "Ġflight": 7750,
      "Ġvaccine": 7751,
      "razy": 7752,
      "class": 7753,
      "Ġpopular": 7754,
      "Ġinterleukin": 7755,
      "otides": 7756,
      "radiol": 7757,
      "Ġuntreated": 7758,
      "Ġhistorical": 7759,
      "Ġantibiotics": 7760,
      "Ġcarboxyl": 7761,
      "Ġcyclo": 7762,
      "Ġpotentially": 7763,
      "Ġ99": 7764,
      "Ġhes": 7765,
      "Ġrubber": 7766,
      "Ġmicrop": 7767,
      "asic": 7768,
      "ĠMean": 7769,
      "Ġregist": 7770,
      "zing": 7771,
      "ĠMaybe": 7772,
      "Ġdepressed": 7773,
      "Ġplans": 7774,
      "heres": 7775,
      "Ġremove": 7776,
      "Ġoutl": 7777,
      "phyl": 7778,
      "Ġlid": 7779,
      "Me": 7780,
      "Ġanc": 7781,
      "Ġdiaphragm": 7782,
      "ifies": 7783,
      "oder": 7784,
      "ressing": 7785,
      "Ġ@(": 7786,
      "Ġstimuli": 7787,
      "450": 7788,
      "Ġconsiderably": 7789,
      "Ġasthma": 7790,
      "ĠPM": 7791,
      "ĠPeople": 7792,
      "Ġpositioning": 7793,
      "ĠChina": 7794,
      "ĠOoh": 7795,
      "Ġsight": 7796,
      "ocytosis": 7797,
      "Ġtal": 7798,
      "ĠInternational": 7799,
      "patient": 7800,
      "liance": 7801,
      "ozo": 7802,
      "Ġactuator": 7803,
      "heric": 7804,
      "Ġ1979": 7805,
      "Ġcorner": 7806,
      "Ġrings": 7807,
      "Ġadjusted": 7808,
      "Ġbeams": 7809,
      "Ġsorry": 7810,
      "Ġcouple": 7811,
      "ĠIndian": 7812,
      "what": 7813,
      "Ġyounger": 7814,
      "Ġbic": 7815,
      "Ġhus": 7816,
      "Ġunchanged": 7817,
      "ĠcAMP": 7818,
      "orient": 7819,
      "Ġrelief": 7820,
      "Ġintensive": 7821,
      "Ġslid": 7822,
      "Ġpreoperative": 7823,
      "Ġsituations": 7824,
      "Ġempir": 7825,
      "eu": 7826,
      "Ġkinds": 7827,
      "Ġdopamine": 7828,
      "abled": 7829,
      "Ġvisible": 7830,
      "Ġexcitation": 7831,
      "Ġcultural": 7832,
      "Ġstomach": 7833,
      "Ġprogression": 7834,
      "mph": 7835,
      "Ġvariability": 7836,
      "artments": 7837,
      "Ġsuffering": 7838,
      "Ġretained": 7839,
      "Ġfractures": 7840,
      "Ġmicroscopic": 7841,
      "ido": 7842,
      "Ġbroken": 7843,
      "Ġcompetitive": 7844,
      "Ġjoined": 7845,
      "Ġextracted": 7846,
      "ĠLong": 7847,
      "CS": 7848,
      "Ġrandomly": 7849,
      "Ġdelivered": 7850,
      "Ġwinding": 7851,
      "Ġstore": 7852,
      "ĠProgram": 7853,
      "itant": 7854,
      "rill": 7855,
      "Ġtill": 7856,
      "Ġbes": 7857,
      "Ġdatabase": 7858,
      "Ġconstraints": 7859,
      "Ġsess": 7860,
      "ensions": 7861,
      "ĠPers": 7862,
      "rus": 7863,
      "stood": 7864,
      "Ġconsideration": 7865,
      "Ġsustained": 7866,
      "AA": 7867,
      "Ġyeast": 7868,
      "Ġelevation": 7869,
      "Ġeu": 7870,
      "Ġjaw": 7871,
      "aign": 7872,
      "ĠTNF": 7873,
      "ulmonary": 7874,
      "ĠYOU": 7875,
      "ĠDec": 7876,
      "Ġsurge": 7877,
      "ĠSou": 7878,
      "Ġheparin": 7879,
      "Ġsimpl": 7880,
      "Ġcleaning": 7881,
      "Ġtumours": 7882,
      "Ġcorne": 7883,
      "Ġstatic": 7884,
      "Ġaromatic": 7885,
      "Ġenlar": 7886,
      "Ġdors": 7887,
      "plate": 7888,
      "Ġfung": 7889,
      "Ġcharged": 7890,
      "Ġantic": 7891,
      "Ġprecursor": 7892,
      "Ġversion": 7893,
      "ĠProf": 7894,
      "Ġcertainly": 7895,
      "Ġcalls": 7896,
      "Ġmodeling": 7897,
      "ĠkDa": 7898,
      "Ã³n": 7899,
      "Ġwheels": 7900,
      "Ġvibration": 7901,
      "Ġatmosphere": 7902,
      "Ġhistamine": 7903,
      "Ġperspective": 7904,
      "Ġbelieved": 7905,
      "ĠAR": 7906,
      "Ġgeneralized": 7907,
      "Ġcycles": 7908,
      "ford": 7909,
      "Ġstenosis": 7910,
      "Ġaspect": 7911,
      "onn": 7912,
      "67": 7913,
      "Ġmatched": 7914,
      "Ġsystolic": 7915,
      "Ġvictim": 7916,
      "Ġorganisms": 7917,
      "NP": 7918,
      "Ġdomains": 7919,
      "Ġsurve": 7920,
      "Ġfoam": 7921,
      "acic": 7922,
      "Ġincident": 7923,
      "Ġmethodology": 7924,
      "ĠSing": 7925,
      "Ġshit": 7926,
      "iable": 7927,
      "Ġconscious": 7928,
      "mented": 7929,
      "inv": 7930,
      "Ġpractices": 7931,
      "Ġcoal": 7932,
      "math": 7933,
      "Ġjack": 7934,
      "Ġretin": 7935,
      "elines": 7936,
      "Ġnice": 7937,
      "Ġdreams": 7938,
      "Ġ64": 7939,
      "Ġapply": 7940,
      "Ġtwenty": 7941,
      "ĠPark": 7942,
      "68": 7943,
      "Ġacquisition": 7944,
      "ISA": 7945,
      "Ġsalts": 7946,
      "Ġoutwardly": 7947,
      "ĠCount": 7948,
      "ĠHg": 7949,
      "ATP": 7950,
      "Ġfigures": 7951,
      "Ġtooth": 7952,
      "ki": 7953,
      "Ġ400": 7954,
      "Ġvaluable": 7955,
      "Ġreflex": 7956,
      "ĠPhys": 7957,
      "Ġforget": 7958,
      "bar": 7959,
      "ĠDu": 7960,
      "ago": 7961,
      "Ġ51": 7962,
      "Ġneurop": 7963,
      "Ġoptimum": 7964,
      "ĠSecretary": 7965,
      "edded": 7966,
      "Ġphenotype": 7967,
      "ĠDemoc": 7968,
      "Ġpolypeptide": 7969,
      "forming": 7970,
      "mental": 7971,
      "Ġshad": 7972,
      "Ġdistributions": 7973,
      "adian": 7974,
      "labeled": 7975,
      "Ġprocessed": 7976,
      "Ġran": 7977,
      "ÅŁ": 7978,
      "oline": 7979,
      "axial": 7980,
      "Ġcivil": 7981,
      "Ġcath": 7982,
      "Ġpowerful": 7983,
      "Ab": 7984,
      "Ġincome": 7985,
      "Ġbehavioral": 7986,
      "Ġairway": 7987,
      "oscopy": 7988,
      "ellow": 7989,
      "Ġhypothal": 7990,
      "Ġattitudes": 7991,
      "Ġjobs": 7992,
      "Ġknee": 7993,
      "ĠReview": 7994,
      "Ġsemi": 7995,
      "Ġimpairment": 7996,
      "ulose": 7997,
      "roy": 7998,
      "Ġfilling": 7999,
      "Ġahead": 8000,
      "Ġaccepted": 8001,
      "Ġhappen": 8002,
      "Ġconduction": 8003,
      "Ġadenosine": 8004,
      "ibular": 8005,
      "Ġhex": 8006,
      "ĠNE": 8007,
      "Ġâ": 8008,
      "life": 8009,
      "Ġdeliver": 8010,
      "Ġabund": 8011,
      "ĠBar": 8012,
      "Ġconfidence": 8013,
      "Ġanyone": 8014,
      "Ġacad": 8015,
      "olin": 8016,
      "Ġpresum": 8017,
      "Ġaligned": 8018,
      "Ġsteroid": 8019,
      "Ġcong": 8020,
      "Ġveget": 8021,
      "gent": 8022,
      "width": 8023,
      "Ġphilos": 8024,
      "Ġmathemat": 8025,
      "oted": 8026,
      "Ã¡s": 8027,
      "Ġunlike": 8028,
      "Ġcigaret": 8029,
      "Ġpermeability": 8030,
      "Ġlowest": 8031,
      "ĠÐ¿": 8032,
      "Ġlaugh": 8033,
      "Ġvalid": 8034,
      "Ġstopped": 8035,
      "ĠMac": 8036,
      "ĠPD": 8037,
      "Ġfracture": 8038,
      "ĠSchool": 8039,
      "Ġweights": 8040,
      "Ġoriented": 8041,
      "amate": 8042,
      "Ġrequiring": 8043,
      "Ġenvelope": 8044,
      "Ġcircumst": 8045,
      "Ġsensors": 8046,
      "Ġdifficulties": 8047,
      "gia": 8048,
      "ĠCL": 8049,
      "Ġpara": 8050,
      "Ġol": 8051,
      "eless": 8052,
      "ĠÐ²": 8053,
      "Ġ49": 8054,
      "stein": 8055,
      "Ġconverter": 8056,
      "Ġconverted": 8057,
      "Ġchip": 8058,
      "Ġattributed": 8059,
      "Ġsector": 8060,
      "issions": 8061,
      "Ġaffecting": 8062,
      "Ġcorrelations": 8063,
      "Ġequally": 8064,
      "Ġabol": 8065,
      "Ġdrinking": 8066,
      "Ġideas": 8067,
      "ÅĤ": 8068,
      "Ġproportional": 8069,
      "ITH": 8070,
      "Ġsharp": 8071,
      "Ġpivotally": 8072,
      "lla": 8073,
      "Ġrepresentative": 8074,
      "Ġcloned": 8075,
      "Ġsubm": 8076,
      "ILL": 8077,
      "Ġembryos": 8078,
      "Ġsurpris": 8079,
      "Ġflows": 8080,
      "Ġtoxin": 8081,
      "Ġclamping": 8082,
      "Ġeat": 8083,
      "ĠAustral": 8084,
      "SD": 8085,
      "Ġplaces": 8086,
      "Ġvertically": 8087,
      "Ġreplaced": 8088,
      "Ġyields": 8089,
      "Ġtraffic": 8090,
      "Ġtrache": 8091,
      "opy": 8092,
      "Ġcoinc": 8093,
      "@!": 8094,
      "Ġmening": 8095,
      "Ġantenna": 8096,
      "Ġexclus": 8097,
      "Ġ54": 8098,
      "ĠON": 8099,
      "Ġhurt": 8100,
      "ham": 8101,
      "aceut": 8102,
      "Ġtong": 8103,
      "ĠThose": 8104,
      "ĠDa": 8105,
      "ĠDel": 8106,
      "Ġadren": 8107,
      "Ġarbit": 8108,
      "cis": 8109,
      "Ġ_": 8110,
      "Ġcolony": 8111,
      "BL": 8112,
      "Hg": 8113,
      "can": 8114,
      "Ġserved": 8115,
      "ĠHel": 8116,
      "Ġduod": 8117,
      "Ġbridge": 8118,
      "Ġbelief": 8119,
      "Ġclosing": 8120,
      "Ġexactly": 8121,
      "Ġundertaken": 8122,
      "Ġsuspected": 8123,
      "itic": 8124,
      "ĠRuss": 8125,
      "mg": 8126,
      "Ġqui": 8127,
      "Ġnasal": 8128,
      "Ġimproving": 8129,
      "ona": 8130,
      "Ġcenters": 8131,
      "Ġwalking": 8132,
      "EE": 8133,
      "Ġperiphery": 8134,
      "Ġcytoplasmic": 8135,
      "Ġmetallic": 8136,
      "ĠFollowing": 8137,
      "Ġoptic": 8138,
      "Ġclot": 8139,
      "uated": 8140,
      "Ġneighbor": 8141,
      "Ġshared": 8142,
      "ophyll": 8143,
      "Ġcytochrome": 8144,
      "Ġsuppressed": 8145,
      "Ġischemic": 8146,
      "Ġtransparent": 8147,
      "Ġstrept": 8148,
      "Ġproceed": 8149,
      "nit": 8150,
      "Ġfreedom": 8151,
      "Ġiod": 8152,
      "ograms": 8153,
      "ĠAP": 8154,
      "Ġimmunoglobulin": 8155,
      "aturated": 8156,
      "emper": 8157,
      "Ġadvance": 8158,
      "astolic": 8159,
      "dep": 8160,
      "wood": 8161,
      "Ġrobot": 8162,
      "vation": 8163,
      "Ġsequential": 8164,
      "Ġanesthesia": 8165,
      "Ġpush": 8166,
      "Ġcrack": 8167,
      "Ġviews": 8168,
      "Ġphosphatase": 8169,
      "uron": 8170,
      "itated": 8171,
      "Ġcompat": 8172,
      "month": 8173,
      "Ġcompetition": 8174,
      "Ġrational": 8175,
      "icit": 8176,
      "phthal": 8177,
      "ĠRA": 8178,
      "Ġmicrowave": 8179,
      "Ġfaster": 8180,
      "spl": 8181,
      "Ð´": 8182,
      "Ġmetastatic": 8183,
      "atellite": 8184,
      "Ġfiltration": 8185,
      "ĠStand": 8186,
      "Ġdepartment": 8187,
      "Ġhip": 8188,
      "ĠClinton": 8189,
      "Ġpathological": 8190,
      "ker": 8191,
      "low": 8192,
      "iel": 8193,
      "Ġmapping": 8194,
      "ecting": 8195,
      "ĠRed": 8196,
      "Ġacetate": 8197,
      "Ġtil": 8198,
      "Ġ58": 8199,
      "Ġmobile": 8200,
      "Ġepisodes": 8201,
      "Ġturning": 8202,
      "ĠEt": 8203,
      "Ġvesicles": 8204,
      "Î¿": 8205,
      "ĠRem": 8206,
      "Ġquestionnaire": 8207,
      "Ġah": 8208,
      "Ġexaminations": 8209,
      "icin": 8210,
      "Ġrheumat": 8211,
      "ĠDavid": 8212,
      "Ġaccomplished": 8213,
      "fin": 8214,
      "ĠRF": 8215,
      "Ġprophyl": 8216,
      "ĠAssociation": 8217,
      "Ġdoctor": 8218,
      "Ġphone": 8219,
      "ipine": 8220,
      "Ġjump": 8221,
      "Ġsolar": 8222,
      "Ġspirit": 8223,
      "ĠAtt": 8224,
      "Ġevoked": 8225,
      "itary": 8226,
      "Ġblank": 8227,
      "using": 8228,
      "Ġenables": 8229,
      "Ġaggregation": 8230,
      "acetyl": 8231,
      "Ġket": 8232,
      "Ġhalogen": 8233,
      "iating": 8234,
      "Ġcytotoxic": 8235,
      "CSF": 8236,
      "ĠChildren": 8237,
      "Ġbooks": 8238,
      "ĠÙ": 8239,
      "Ġincom": 8240,
      "Ġps": 8241,
      "ĠGeorge": 8242,
      "ATION": 8243,
      "olf": 8244,
      "pril": 8245,
      "Ġprojects": 8246,
      "ĠPlasma": 8247,
      "Ġcomplicated": 8248,
      "ĠAmericans": 8249,
      "ĠJune": 8250,
      "ĠProject": 8251,
      "illus": 8252,
      "ĠCoun": 8253,
      "ĠMid": 8254,
      "Ġbreath": 8255,
      "Ġsteam": 8256,
      "uria": 8257,
      "Ġblot": 8258,
      "Ġhier": 8259,
      "64": 8260,
      "Ġalt": 8261,
      "Ġmitochondrial": 8262,
      "Co": 8263,
      "52": 8264,
      "Ġlaws": 8265,
      "Ġcapability": 8266,
      "Ġturns": 8267,
      "{\\": 8268,
      "Ev": 8269,
      "Ġhypothes": 8270,
      "oupl": 8271,
      "Ġcarbohyd": 8272,
      "Ġbatt": 8273,
      "Ġrecon": 8274,
      "estine": 8275,
      "Ġactin": 8276,
      "Ġqualitative": 8277,
      "Ġride": 8278,
      "ois": 8279,
      "Ġfacilities": 8280,
      "iliar": 8281,
      "mes": 8282,
      "Ġoperate": 8283,
      "pi": 8284,
      "ĠMET": 8285,
      "Ġdocumented": 8286,
      "Ġheads": 8287,
      "Ġcollege": 8288,
      "Ġbudget": 8289,
      "mark": 8290,
      "Ġjet": 8291,
      "Ġindication": 8292,
      "inine": 8293,
      "Ġlargest": 8294,
      "Ġelimination": 8295,
      "Ġretinal": 8296,
      "ĠHol": 8297,
      "ĠPoly": 8298,
      "enia": 8299,
      "Ġnigg": 8300,
      "Ġdiscontin": 8301,
      "Ĳ×": 8302,
      "ĠIgM": 8303,
      "Ġresting": 8304,
      "Ġincre": 8305,
      "Ġfixation": 8306,
      "ĠAC": 8307,
      "----": 8308,
      "ĠEduc": 8309,
      "Ġtob": 8310,
      "ĠExt": 8311,
      "ozyg": 8312,
      "night": 8313,
      "ruption": 8314,
      "Ġblast": 8315,
      "Ġhardware": 8316,
      "gy": 8317,
      "ĠThank": 8318,
      "Ġcapacitor": 8319,
      "Ġidentity": 8320,
      "Ġscene": 8321,
      "Ġeveryone": 8322,
      "Ġsmoke": 8323,
      "aa": 8324,
      "Ġcurrents": 8325,
      "200": 8326,
      "Ġdiffuse": 8327,
      "Ġmammalian": 8328,
      "Ġpra": 8329,
      "Ġtransformed": 8330,
      "Ġfingers": 8331,
      "ĠJesus": 8332,
      "change": 8333,
      "93": 8334,
      "ĠHell": 8335,
      "Ġcalculation": 8336,
      "Ġgangl": 8337,
      "Ġvalidity": 8338,
      "Ġsensit": 8339,
      "Ġking": 8340,
      "cean": 8341,
      "Ġfeas": 8342,
      "ectin": 8343,
      "Ġchambers": 8344,
      "ĠJanuary": 8345,
      "Ġpredominantly": 8346,
      "Ġfocused": 8347,
      "Ġcoag": 8348,
      "ircraft": 8349,
      "ĠDevelopment": 8350,
      "lication": 8351,
      "Ġsliding": 8352,
      "omonas": 8353,
      "Ġlect": 8354,
      "ĠSocial": 8355,
      "pes": 8356,
      "ĠCourt": 8357,
      "Ġhealing": 8358,
      "72": 8359,
      "Ġretaining": 8360,
      "58": 8361,
      "Ġmonomer": 8362,
      "Ġpractition": 8363,
      "ĠResp": 8364,
      "Ġum": 8365,
      "lam": 8366,
      "Ġyoull": 8367,
      "ius": 8368,
      "Ġflap": 8369,
      "Ġmixtures": 8370,
      "Ġrating": 8371,
      "ĠGive": 8372,
      "Ġexperiences": 8373,
      "ophag": 8374,
      "Ġsaliv": 8375,
      "oin": 8376,
      "Ġeverybody": 8377,
      "Ġcrazy": 8378,
      "Ġsympathetic": 8379,
      "meth": 8380,
      "ĠWhe": 8381,
      "Ġbinary": 8382,
      "Ġdivision": 8383,
      "poly": 8384,
      "Ġnurses": 8385,
      "habilit": 8386,
      "Ġletter": 8387,
      "duce": 8388,
      "ĠBefore": 8389,
      "ĠOct": 8390,
      "Ġneurot": 8391,
      "Ġperitoneal": 8392,
      "Ġdeposited": 8393,
      "Ġpresenting": 8394,
      "Ġelectromagnetic": 8395,
      "otrans": 8396,
      "Ġprobes": 8397,
      "Ġhandling": 8398,
      "Ġmono": 8399,
      "Ġburst": 8400,
      "cran": 8401,
      "frequency": 8402,
      "Ġschizophren": 8403,
      "Ġtrust": 8404,
      "Ġattempts": 8405,
      "Ġideal": 8406,
      "Ġlinkage": 8407,
      "Ġmarg": 8408,
      "Ġraise": 8409,
      "Ġserves": 8410,
      "esterone": 8411,
      "ĠRich": 8412,
      "Ġaccurately": 8413,
      "ountered": 8414,
      "Ġanxiety": 8415,
      "Se": 8416,
      "ometh": 8417,
      "Ġstuff": 8418,
      "UD": 8419,
      "Ġvoc": 8420,
      "ameth": 8421,
      "Ġexcit": 8422,
      "Ġregulated": 8423,
      "omorph": 8424,
      "chym": 8425,
      "rote": 8426,
      "Ġcampaign": 8427,
      "Ðº": 8428,
      "Ġtrouble": 8429,
      "Ġkm": 8430,
      "len": 8431,
      "gence": 8432,
      "Ġgonad": 8433,
      "Ġchief": 8434,
      "Ġpathways": 8435,
      "Ġunderstood": 8436,
      "Ġcas": 8437,
      "oli": 8438,
      "Ġdosage": 8439,
      "Ġadding": 8440,
      "ĠSerum": 8441,
      "week": 8442,
      "ĠVal": 8443,
      "Ġsuccessive": 8444,
      "Ġrupt": 8445,
      "za": 8446,
      "ĠNAD": 8447,
      "iced": 8448,
      "Ġadmission": 8449,
      "Ar": 8450,
      "Ġforever": 8451,
      "Ġencountered": 8452,
      "isters": 8453,
      "Ġprogesterone": 8454,
      "Ġvariance": 8455,
      "Ġinflammation": 8456,
      "Ġnic": 8457,
      "ĠED": 8458,
      "erential": 8459,
      "PV": 8460,
      "Ġgrand": 8461,
      "BER": 8462,
      "Ġstrips": 8463,
      "Ġregister": 8464,
      "ographs": 8465,
      "rise": 8466,
      "Ġcapillary": 8467,
      "Ġdivers": 8468,
      "irable": 8469,
      "ĠTod": 8470,
      "94": 8471,
      "Ġcategories": 8472,
      "ĠBel": 8473,
      "Ġincubated": 8474,
      "ogens": 8475,
      "ĠMrs": 8476,
      "isted": 8477,
      "Å¡": 8478,
      "ĠIra": 8479,
      "Ġcrystals": 8480,
      "Ġcu": 8481,
      "Ġhormones": 8482,
      "ĠNH": 8483,
      "Ġincreasingly": 8484,
      "Ġinfrared": 8485,
      "):": 8486,
      "vo": 8487,
      "Ġfro": 8488,
      "ensus": 8489,
      "test": 8490,
      "geal": 8491,
      "Ġfriction": 8492,
      "Ġbrom": 8493,
      "oxic": 8494,
      "Ã¹": 8495,
      "Ã±": 8496,
      "Ġrotational": 8497,
      "ĠLar": 8498,
      "IE": 8499,
      "Ġprediction": 8500,
      "Ġsir": 8501,
      "Ġpent": 8502,
      "Ġteacher": 8503,
      "Ġreveal": 8504,
      "two": 8505,
      "Ġot": 8506,
      "ĠAdminist": 8507,
      "Ġtin": 8508,
      "Ġdup": 8509,
      "ifice": 8510,
      "ĠFif": 8511,
      "uthor": 8512,
      "acco": 8513,
      "Ġweap": 8514,
      "Ġlibrary": 8515,
      "Ġich": 8516,
      "tub": 8517,
      "Cs": 8518,
      "opoly": 8519,
      "omized": 8520,
      "Ġpediatric": 8521,
      "SR": 8522,
      "amil": 8523,
      "She": 8524,
      "Ġentirely": 8525,
      "Ġbip": 8526,
      "ardia": 8527,
      "ulative": 8528,
      "Ġanalytical": 8529,
      "chain": 8530,
      "Ġengineering": 8531,
      "ĠMeasure": 8532,
      "SE": 8533,
      "ĠFort": 8534,
      "Ġtuberculosis": 8535,
      "ĠBre": 8536,
      "Ġfluids": 8537,
      "ployment": 8538,
      "Ġwavegu": 8539,
      "',": 8540,
      "Ġemploying": 8541,
      "ĠThrough": 8542,
      "Ġblocking": 8543,
      "Ġadjusting": 8544,
      "comes": 8545,
      "Ġdecreasing": 8546,
      "Ġerythrocytes": 8547,
      "Ġavailability": 8548,
      "ĠIsrael": 8549,
      "omed": 8550,
      "Ġrhythm": 8551,
      "Ġcommit": 8552,
      "leb": 8553,
      "ifer": 8554,
      "ja": 8555,
      "Ġsizes": 8556,
      "Ġdecay": 8557,
      "enza": 8558,
      "Ġpilot": 8559,
      "uscular": 8560,
      "Ġutility": 8561,
      "Ġyouve": 8562,
      "Ġhors": 8563,
      "ensit": 8564,
      "Ġmostly": 8565,
      "Ġinjections": 8566,
      "iae": 8567,
      "Ġfewer": 8568,
      "ofluores": 8569,
      "96": 8570,
      "Ġathe": 8571,
      "ael": 8572,
      "Ġperforming": 8573,
      "yroid": 8574,
      "Ġinvestment": 8575,
      "ĠnÃ£o": 8576,
      "Ġcomplication": 8577,
      "atile": 8578,
      "Ġstrict": 8579,
      "ĠÂ£": 8580,
      "Ġaccident": 8581,
      "four": 8582,
      "Ġlungs": 8583,
      "Ġhaz": 8584,
      "Ġceramic": 8585,
      "Ġreag": 8586,
      "Ġcopolymer": 8587,
      "endence": 8588,
      "ĠFed": 8589,
      "ELL": 8590,
      "Ġupstream": 8591,
      "Ġsave": 8592,
      "Ms": 8593,
      "Îµ": 8594,
      "Ġcombinations": 8595,
      "Ġtears": 8596,
      "adrenergic": 8597,
      "opes": 8598,
      "uel": 8599,
      "Ġmad": 8600,
      "ĠMarch": 8601,
      "ylate": 8602,
      "Ġasymmet": 8603,
      "This": 8604,
      "Ġinterm": 8605,
      "ĠBush": 8606,
      "Ġannual": 8607,
      "Ġdecade": 8608,
      "ounds": 8609,
      "Ġpersistent": 8610,
      "Ġcatch": 8611,
      "Ġsugar": 8612,
      "Ġrollers": 8613,
      "stage": 8614,
      "Ġagonist": 8615,
      "Ġreversed": 8616,
      "Ġdemoc": 8617,
      "Ġabsent": 8618,
      "anium": 8619,
      "Ġpassive": 8620,
      "oric": 8621,
      "Ġspind": 8622,
      "Ġgoals": 8623,
      "Ġtendency": 8624,
      "aper": 8625,
      "Ġreactor": 8626,
      "ĠApril": 8627,
      "Ġmoist": 8628,
      "ĠInstitute": 8629,
      "Ġment": 8630,
      "500": 8631,
      "rifug": 8632,
      "Ġangiotensin": 8633,
      "Ġthrow": 8634,
      "Ġsupposed": 8635,
      "Ñĩ": 8636,
      "oblast": 8637,
      "Ġsomebody": 8638,
      "Ġmere": 8639,
      "ceptors": 8640,
      "ĠUnion": 8641,
      "Ġtranslation": 8642,
      "Ġconven": 8643,
      "Ġpray": 8644,
      "bling": 8645,
      "Ġdecided": 8646,
      "Ġphag": 8647,
      "Ġpredictive": 8648,
      "Ġrenin": 8649,
      "Ġcatalytic": 8650,
      "Ġtach": 8651,
      "Ġhydrocarbon": 8652,
      "ĠWilliam": 8653,
      "What": 8654,
      "ĠDR": 8655,
      "54": 8656,
      "Ġconsequence": 8657,
      "Ġwel": 8658,
      "Ġguys": 8659,
      "Ġlam": 8660,
      "ĠRecent": 8661,
      "Ġaddressed": 8662,
      "Ġgovern": 8663,
      "Ġpreparing": 8664,
      "ett": 8665,
      "comitant": 8666,
      "Ġserial": 8667,
      "Ġanalges": 8668,
      "imic": 8669,
      "ĠOnce": 8670,
      "ĠAut": 8671,
      "ocular": 8672,
      "Ġapproximation": 8673,
      "Ġpromin": 8674,
      "ĠWork": 8675,
      "Ġinstitutions": 8676,
      "Ġindices": 8677,
      "Ġepile": 8678,
      "Ġgestation": 8679,
      "inction": 8680,
      "Ġrejection": 8681,
      "They": 8682,
      "ĠTom": 8683,
      "Ġroof": 8684,
      "Ġforth": 8685,
      "ĠACT": 8686,
      "aryngeal": 8687,
      "Ġsealed": 8688,
      "Ġconjunction": 8689,
      "transferase": 8690,
      "cents": 8691,
      "Ġink": 8692,
      "73": 8693,
      "hetized": 8694,
      "Ġinvolve": 8695,
      "elescop": 8696,
      "Ġretro": 8697,
      "Ġdomestic": 8698,
      "Ġshorter": 8699,
      "Ġtomorrow": 8700,
      "Ġharmon": 8701,
      "Ġcation": 8702,
      "****": 8703,
      "Ġmeant": 8704,
      "Ġsensory": 8705,
      "add": 8706,
      "Ġindeed": 8707,
      "Ġpathology": 8708,
      "Ġdiscusses": 8709,
      "Ġconve": 8710,
      "iasis": 8711,
      "Ġsomewhat": 8712,
      "Ġpour": 8713,
      "uten": 8714,
      "amous": 8715,
      "Ġroles": 8716,
      "ĠNor": 8717,
      "Ġcorpor": 8718,
      "Ġauxiliary": 8719,
      "ĠIgA": 8720,
      "ĠBill": 8721,
      "Ġdiscovered": 8722,
      "Ġdefense": 8723,
      "Ġsmile": 8724,
      "ĠIraq": 8725,
      "cul": 8726,
      "Ġcomprehensive": 8727,
      "ĠLabor": 8728,
      "Ġcontrovers": 8729,
      "ĠSuper": 8730,
      "between": 8731,
      "Ġoccupational": 8732,
      "ĠFin": 8733,
      "cember": 8734,
      "ĠTen": 8735,
      "Ġ66": 8736,
      "auc": 8737,
      "Ġgrid": 8738,
      "Ġstars": 8739,
      "Ġexogenous": 8740,
      "herence": 8741,
      "Ġcritic": 8742,
      "Ġhydroxy": 8743,
      "ogenetic": 8744,
      "Ġbeneath": 8745,
      "03": 8746,
      "Ġdioxide": 8747,
      "98": 8748,
      "Ġshap": 8749,
      "Ġpou": 8750,
      "ito": 8751,
      "itance": 8752,
      "ĠSoci": 8753,
      "ĠShes": 8754,
      "osynthesis": 8755,
      "lected": 8756,
      "hered": 8757,
      "ĠEngland": 8758,
      "Ġaircraft": 8759,
      "Ġstone": 8760,
      "ALL": 8761,
      "prise": 8762,
      "Ġevaluating": 8763,
      "Ġpronounced": 8764,
      "ĠDay": 8765,
      "Ġdialysis": 8766,
      "ĠUN": 8767,
      "Compar": 8768,
      "Si": 8769,
      "Ġonc": 8770,
      "kes": 8771,
      "raid": 8772,
      "Ġtyrosine": 8773,
      "ĠSH": 8774,
      "ĠThirty": 8775,
      "arant": 8776,
      "Ġcarriage": 8777,
      "Ġechocardi": 8778,
      "Ġhydrolysis": 8779,
      "ococcal": 8780,
      "Ġ68": 8781,
      "cranial": 8782,
      "Ġhemorrhage": 8783,
      "Ġdermat": 8784,
      "Ġsplit": 8785,
      "Ġdemonstrates": 8786,
      "ubation": 8787,
      "ocyan": 8788,
      "Ġinstant": 8789,
      "immune": 8790,
      "Ġsept": 8791,
      "Ġmelanoma": 8792,
      "Ġlimitations": 8793,
      "Ġguard": 8794,
      "Ġsimulated": 8795,
      "Ġimper": 8796,
      "Ġfemoral": 8797,
      "dis": 8798,
      "Ġbell": 8799,
      "Ġ57": 8800,
      "Ġkinetic": 8801,
      "Ġmobility": 8802,
      "ĠâĢĶ": 8803,
      "Ġdiode": 8804,
      "ho": 8805,
      "Ġvaccin": 8806,
      "Ġsubcutaneous": 8807,
      "Ġneuronal": 8808,
      "IVER": 8809,
      "hea": 8810,
      "Ġfibrosis": 8811,
      "ĠRock": 8812,
      "Ġdriver": 8813,
      "SC": 8814,
      "Ġpretreatment": 8815,
      "Ġpup": 8816,
      "ĠArab": 8817,
      "leg": 8818,
      "Ġdonors": 8819,
      "Ġpartly": 8820,
      "ĠPal": 8821,
      "Ġcrime": 8822,
      "amines": 8823,
      "Ġgri": 8824,
      "Ġ1970": 8825,
      "inson": 8826,
      "Ġrequirement": 8827,
      "agg": 8828,
      "Ġuh": 8829,
      "Ġendomet": 8830,
      "Ġroute": 8831,
      "oplasty": 8832,
      "Ġthreaded": 8833,
      "mas": 8834,
      "Ġimpedance": 8835,
      "NAL": 8836,
      "Ġmicrob": 8837,
      "static": 8838,
      "Ġ53": 8839,
      "gements": 8840,
      "opsies": 8841,
      "Ġtherefrom": 8842,
      "Ġcommunications": 8843,
      "Ġrheumatoid": 8844,
      "Ġspaces": 8845,
      "Ġlos": 8846,
      "izable": 8847,
      "Ġdigest": 8848,
      "ochemistry": 8849,
      "ograft": 8850,
      "Ġbeautiful": 8851,
      "QU": 8852,
      "Ġbund": 8853,
      "IVE": 8854,
      "Ġsatisfactory": 8855,
      "ĠEst": 8856,
      "Ġsomat": 8857,
      "Ġglands": 8858,
      "ba": 8859,
      "ĠPo": 8860,
      "Ġadop": 8861,
      "elve": 8862,
      "ĠDan": 8863,
      "BF": 8864,
      "mers": 8865,
      "ĠBack": 8866,
      "Ġrecognize": 8867,
      "ĠJuly": 8868,
      "fficiency": 8869,
      "ĠIGF": 8870,
      "Ġbracket": 8871,
      "ĠSD": 8872,
      "Ġlatch": 8873,
      "rd": 8874,
      "Ġperceived": 8875,
      "Ġsuction": 8876,
      "Ġ67": 8877,
      "ls": 8878,
      "theless": 8879,
      "Ġimmunohist": 8880,
      "ulent": 8881,
      "alls": 8882,
      "ĠAir": 8883,
      "ĠIns": 8884,
      "ĠCSF": 8885,
      "Ġba": 8886,
      "Ġcrow": 8887,
      "Ġfalling": 8888,
      "ĠMedic": 8889,
      "uclear": 8890,
      "Ġinert": 8891,
      "joy": 8892,
      "ĠSummary": 8893,
      "Ġtargets": 8894,
      "five": 8895,
      "Ġau": 8896,
      "Ġprison": 8897,
      "Ġlowered": 8898,
      "Ġinfectious": 8899,
      "place": 8900,
      "vic": 8901,
      "Ġexplanation": 8902,
      "Ġcomfort": 8903,
      "def": 8904,
      "Ġretrie": 8905,
      "Ġsouth": 8906,
      "ĠDown": 8907,
      "ocortic": 8908,
      "anta": 8909,
      "Ig": 8910,
      "Ġcomplementary": 8911,
      "rocessor": 8912,
      "Ġthank": 8913,
      "Ġcluster": 8914,
      "Ġmagnesium": 8915,
      "Ġcircumstances": 8916,
      "Ġpurs": 8917,
      "Ġencou": 8918,
      "anning": 8919,
      "ptive": 8920,
      "ductase": 8921,
      "Ġresponsibility": 8922,
      "itz": 8923,
      "+-": 8924,
      "Ġprotected": 8925,
      "Ġfluctu": 8926,
      "+)-": 8927,
      "herical": 8928,
      "Ġara": 8929,
      "Ġreceives": 8930,
      "Ġspecified": 8931,
      "Ġni": 8932,
      "ĠTex": 8933,
      "Ġconservative": 8934,
      "Ġlosses": 8935,
      "Ġestrogen": 8936,
      "anti": 8937,
      "Ġchicken": 8938,
      "Ġprojecting": 8939,
      "Ġexpon": 8940,
      "Ġsufficiently": 8941,
      "MT": 8942,
      "Ġhat": 8943,
      "Ġhomogeneous": 8944,
      "Ġuterine": 8945,
      "Ġ62": 8946,
      "ilis": 8947,
      ")].": 8948,
      "Ga": 8949,
      "okes": 8950,
      "Ġparticipation": 8951,
      "Ġpapers": 8952,
      "Ġmonol": 8953,
      "Ġswing": 8954,
      "Ġinterrupt": 8955,
      "Ġcleavage": 8956,
      "Ġdetails": 8957,
      "Ġlongitudinally": 8958,
      "Ġseparating": 8959,
      "control": 8960,
      "ĠRO": 8961,
      "Ġlimiting": 8962,
      "raphy": 8963,
      "Ġmatching": 8964,
      "Ġdifficulty": 8965,
      "Ġsnow": 8966,
      "Ġpolymers": 8967,
      "Ġpasses": 8968,
      "Ġrotated": 8969,
      "De": 8970,
      "Ag": 8971,
      "Ġeggs": 8972,
      "Ġmoon": 8973,
      "Ġmentioned": 8974,
      "Ġultrast": 8975,
      "Ġoptionally": 8976,
      "Ġphotos": 8977,
      "opathic": 8978,
      "Ġstick": 8979,
      "Ġdifferentiated": 8980,
      "Ġisot": 8981,
      "Ġintestine": 8982,
      "keys": 8983,
      "Ġsulfur": 8984,
      "GA": 8985,
      "blind": 8986,
      "Ġforg": 8987,
      "ginine": 8988,
      "Ġvalves": 8989,
      "unger": 8990,
      "Ġspermat": 8991,
      "74": 8992,
      "Ġsilic": 8993,
      "Ġresponded": 8994,
      "ĠLow": 8995,
      "Ġpole": 8996,
      "stable": 8997,
      "Ġconcurrent": 8998,
      "Ġreality": 8999,
      "Ġcircuitry": 9000,
      "odil": 9001,
      "Ġlactate": 9002,
      "habilitation": 9003,
      "Ġmucosal": 9004,
      "Ġinsight": 9005,
      "Ġsecretory": 9006,
      "Ġprognostic": 9007,
      "Ġmmol": 9008,
      "Ġbor": 9009,
      "ĠOkay": 9010,
      "Ġforest": 9011,
      "Ġphenomena": 9012,
      "Ġconductivity": 9013,
      "glob": 9014,
      "emperature": 9015,
      "protein": 9016,
      "Ġdownstream": 9017,
      "ĠmmHg": 9018,
      "ĠSept": 9019,
      "ribution": 9020,
      "ĠMETHO": 9021,
      "Ġnorth": 9022,
      "Ġsusceptible": 9023,
      "Ġrectangular": 9024,
      "ĠNorthern": 9025,
      "ĠFOR": 9026,
      "Ġpharmacokin": 9027,
      "wide": 9028,
      "Ġoffset": 9029,
      "ulse": 9030,
      "ented": 9031,
      "Ġeliminated": 9032,
      "Ġuncom": 9033,
      "ilic": 9034,
      "Ġdiets": 9035,
      "Ġtheories": 9036,
      "under": 9037,
      "substituted": 9038,
      "Ġelectroc": 9039,
      "Ġpositively": 9040,
      "ulators": 9041,
      "Ġ1994": 9042,
      "ĠSO": 9043,
      "ĠFore": 9044,
      "Ġwit": 9045,
      "ĠOutro": 9046,
      "urations": 9047,
      "Ġemployment": 9048,
      "Ġsend": 9049,
      "Ġempty": 9050,
      "Ġimmob": 9051,
      "ĠMs": 9052,
      "Ġviruses": 9053,
      "Ġdispersion": 9054,
      "Ġ&;": 9055,
      "Ġclutch": 9056,
      "Ġexamines": 9057,
      "ĠGerman": 9058,
      "Ġatomic": 9059,
      "Ġinstall": 9060,
      "ľ×": 9061,
      "ala": 9062,
      "Ġcod": 9063,
      "Ġcement": 9064,
      "Ġstations": 9065,
      "Ġfaith": 9066,
      "Ġdemonst": 9067,
      "attered": 9068,
      "agers": 9069,
      "Ġrepet": 9070,
      "TR": 9071,
      "Ġtypically": 9072,
      "ĠPaul": 9073,
      "Ġconstants": 9074,
      "Ġorganizations": 9075,
      "Ġthi": 9076,
      "phen": 9077,
      "ĠMary": 9078,
      "mo": 9079,
      "umer": 9080,
      "Ġlone": 9081,
      "lact": 9082,
      "oriented": 9083,
      "ambda": 9084,
      "racted": 9085,
      "Ġrestrict": 9086,
      "Ġva": 9087,
      "ĠPrevious": 9088,
      "Ġship": 9089,
      "Ġdich": 9090,
      "cyt": 9091,
      "ĠLaw": 9092,
      "Ġpix": 9093,
      "Ġinitiated": 9094,
      "Ġdebate": 9095,
      "Ġschedul": 9096,
      "ĠÃł": 9097,
      "Â±": 9098,
      "Ġnerves": 9099,
      "Ġinterpreted": 9100,
      "ĠJud": 9101,
      "VP": 9102,
      "controlled": 9103,
      "Ġyielded": 9104,
      "umatic": 9105,
      "omial": 9106,
      "ĠCant": 9107,
      "Ġgradually": 9108,
      "Ġirre": 9109,
      "Ġath": 9110,
      "ecal": 9111,
      "ĠHes": 9112,
      "Ġgrooves": 9113,
      "Ġfist": 9114,
      "Ġoperational": 9115,
      "ĠSA": 9116,
      "Ġrecover": 9117,
      "cher": 9118,
      "Ġstudying": 9119,
      "Ġpocket": 9120,
      "Ġcirrh": 9121,
      "Ġagricult": 9122,
      "Ad": 9123,
      "Ġreversible": 9124,
      "quin": 9125,
      "Ġtrop": 9126,
      "Ġq": 9127,
      "ĠFact": 9128,
      "Ġworkpiece": 9129,
      "organic": 9130,
      "ĠNi": 9131,
      "Ġpropagation": 9132,
      "Ġleuc": 9133,
      "ocarcinoma": 9134,
      "Ġcareful": 9135,
      "atum": 9136,
      "amily": 9137,
      "Ġoscillator": 9138,
      "Ġperiodic": 9139,
      "athyroid": 9140,
      "Ġbreathing": 9141,
      "Ġstimulate": 9142,
      "ĠType": 9143,
      "Ġtrends": 9144,
      "Ġpu": 9145,
      "Ġencoura": 9146,
      "Ġgerm": 9147,
      "Ġhomologous": 9148,
      "uing": 9149,
      "ĠIntra": 9150,
      "Ġgrafts": 9151,
      "ĠDecember": 9152,
      "Ġidentifying": 9153,
      "neys": 9154,
      "Ġsummar": 9155,
      "Ġaging": 9156,
      "Ġtracking": 9157,
      "hour": 9158,
      "orial": 9159,
      "Ġangles": 9160,
      "ĠCouncil": 9161,
      "ĠBridge": 9162,
      "Ġlob": 9163,
[...]
